/* Generated by Edge Impulse
 *
 * Permission is hereby granted, free of charge, to any person obtaining a copy
 * of this software and associated documentation files (the "Software"), to deal
 * in the Software without restriction, including without limitation the rights
 * to use, copy, modify, merge, publish, distribute, sublicense, and/or sell
 * copies of the Software, and to permit persons to whom the Software is
 * furnished to do so, subject to the following conditions:
 *
 * The above copyright notice and this permission notice shall be included in
 * all copies or substantial portions of the Software.
 *
 * THE SOFTWARE IS PROVIDED "AS IS", WITHOUT WARRANTY OF ANY KIND, EXPRESS OR
 * IMPLIED, INCLUDING BUT NOT LIMITED TO THE WARRANTIES OF MERCHANTABILITY,
 * FITNESS FOR A PARTICULAR PURPOSE AND NONINFRINGEMENT. IN NO EVENT SHALL THE
 * AUTHORS OR COPYRIGHT HOLDERS BE LIABLE FOR ANY CLAIM, DAMAGES OR OTHER
 * LIABILITY, WHETHER IN AN ACTION OF CONTRACT, TORT OR OTHERWISE, ARISING FROM,
 * OUT OF OR IN CONNECTION WITH THE SOFTWARE OR THE USE OR OTHER DEALINGS IN THE
 * SOFTWARE.
 */

#ifndef _EI_CLASSIFIER_TFLITE_LEARN_3_H_
#define _EI_CLASSIFIER_TFLITE_LEARN_3_H_

#define EI_CLASSIFIER_TFLITE_LEARN_3_ARENA_SIZE     3846
const size_t tflite_learn_3_arena_size = 3846;

#ifdef EI_CLASSIFIER_TFLITE_ARENA_SIZE
#if EI_CLASSIFIER_TFLITE_ARENA_SIZE < EI_CLASSIFIER_TFLITE_LEARN_3_ARENA_SIZE
#undef EI_CLASSIFIER_TFLITE_ARENA_SIZE
#define EI_CLASSIFIER_TFLITE_ARENA_SIZE EI_CLASSIFIER_TFLITE_LEARN_3_ARENA_SIZE
#endif // #if EI_CLASSIFIER_TFLITE_ARENA_SIZE < EI_CLASSIFIER_TFLITE_LEARN_3_ARENA_SIZE
#else
#define EI_CLASSIFIER_TFLITE_ARENA_SIZE EI_CLASSIFIER_TFLITE_LEARN_3_ARENA_SIZE
#endif // #ifdef EI_CLASSIFIER_TFLITE_ARENA_SIZE

#if defined __GNUC__
#define ALIGN(X) __attribute__((aligned(X)))
#elif defined _MSC_VER
#define ALIGN(X) __declspec(align(X))
#elif defined __TASKING__
#define ALIGN(X) __align(X)
#else
#define ALIGN(X)
#endif
ALIGN(16) const unsigned char tflite_learn_3[] = {
  0x1c, 0x00, 0x00, 0x00, 0x54, 0x46, 0x4c, 0x33, 0x14, 0x00, 0x20, 0x00,
  0x1c, 0x00, 0x18, 0x00, 0x14, 0x00, 0x10, 0x00, 0x0c, 0x00, 0x00, 0x00,
  0x08, 0x00, 0x04, 0x00, 0x14, 0x00, 0x00, 0x00, 0x1c, 0x00, 0x00, 0x00,
  0x94, 0x00, 0x00, 0x00, 0xec, 0x00, 0x00, 0x00, 0x24, 0x1a, 0x00, 0x00,
  0x34, 0x1a, 0x00, 0x00, 0xb0, 0x25, 0x00, 0x00, 0x03, 0x00, 0x00, 0x00,
  0x01, 0x00, 0x00, 0x00, 0x04, 0x00, 0x00, 0x00, 0x82, 0xe5, 0xff, 0xff,
  0x0c, 0x00, 0x00, 0x00, 0x1c, 0x00, 0x00, 0x00, 0x40, 0x00, 0x00, 0x00,
  0x0f, 0x00, 0x00, 0x00, 0x73, 0x65, 0x72, 0x76, 0x69, 0x6e, 0x67, 0x5f,
  0x64, 0x65, 0x66, 0x61, 0x75, 0x6c, 0x74, 0x00, 0x01, 0x00, 0x00, 0x00,
  0x04, 0x00, 0x00, 0x00, 0x88, 0xff, 0xff, 0xff, 0x13, 0x00, 0x00, 0x00,
  0x04, 0x00, 0x00, 0x00, 0x0c, 0x00, 0x00, 0x00, 0x73, 0x65, 0x71, 0x75,
  0x65, 0x6e, 0x74, 0x69, 0x61, 0x6c, 0x5f, 0x31, 0x00, 0x00, 0x00, 0x00,
  0x01, 0x00, 0x00, 0x00, 0x04, 0x00, 0x00, 0x00, 0xa2, 0xe6, 0xff, 0xff,
  0x04, 0x00, 0x00, 0x00, 0x10, 0x00, 0x00, 0x00, 0x73, 0x65, 0x71, 0x75,
  0x65, 0x6e, 0x74, 0x69, 0x61, 0x6c, 0x5f, 0x69, 0x6e, 0x70, 0x75, 0x74,
  0x00, 0x00, 0x00, 0x00, 0x02, 0x00, 0x00, 0x00, 0x34, 0x00, 0x00, 0x00,
  0x04, 0x00, 0x00, 0x00, 0xdc, 0xff, 0xff, 0xff, 0x16, 0x00, 0x00, 0x00,
  0x04, 0x00, 0x00, 0x00, 0x13, 0x00, 0x00, 0x00, 0x43, 0x4f, 0x4e, 0x56,
  0x45, 0x52, 0x53, 0x49, 0x4f, 0x4e, 0x5f, 0x4d, 0x45, 0x54, 0x41, 0x44,
  0x41, 0x54, 0x41, 0x00, 0x08, 0x00, 0x0c, 0x00, 0x08, 0x00, 0x04, 0x00,
  0x08, 0x00, 0x00, 0x00, 0x15, 0x00, 0x00, 0x00, 0x04, 0x00, 0x00, 0x00,
  0x13, 0x00, 0x00, 0x00, 0x6d, 0x69, 0x6e, 0x5f, 0x72, 0x75, 0x6e, 0x74,
  0x69, 0x6d, 0x65, 0x5f, 0x76, 0x65, 0x72, 0x73, 0x69, 0x6f, 0x6e, 0x00,
  0x17, 0x00, 0x00, 0x00, 0x34, 0x19, 0x00, 0x00, 0x2c, 0x19, 0x00, 0x00,
  0xdc, 0x18, 0x00, 0x00, 0x44, 0x18, 0x00, 0x00, 0x24, 0x18, 0x00, 0x00,
  0xd4, 0x17, 0x00, 0x00, 0xb4, 0x17, 0x00, 0x00, 0x24, 0x17, 0x00, 0x00,
  0x14, 0x15, 0x00, 0x00, 0x04, 0x0d, 0x00, 0x00, 0xf4, 0x0b, 0x00, 0x00,
  0xe4, 0x0a, 0x00, 0x00, 0xd4, 0x02, 0x00, 0x00, 0xc4, 0x00, 0x00, 0x00,
  0xbc, 0x00, 0x00, 0x00, 0xb4, 0x00, 0x00, 0x00, 0xac, 0x00, 0x00, 0x00,
  0xa4, 0x00, 0x00, 0x00, 0x9c, 0x00, 0x00, 0x00, 0x94, 0x00, 0x00, 0x00,
  0x8c, 0x00, 0x00, 0x00, 0x6c, 0x00, 0x00, 0x00, 0x04, 0x00, 0x00, 0x00,
  0x7e, 0xe7, 0xff, 0xff, 0x04, 0x00, 0x00, 0x00, 0x58, 0x00, 0x00, 0x00,
  0x0c, 0x00, 0x00, 0x00, 0x08, 0x00, 0x0e, 0x00, 0x08, 0x00, 0x04, 0x00,
  0x08, 0x00, 0x00, 0x00, 0x10, 0x00, 0x00, 0x00, 0x28, 0x00, 0x00, 0x00,
  0x00, 0x00, 0x06, 0x00, 0x08, 0x00, 0x04, 0x00, 0x06, 0x00, 0x00, 0x00,
  0x04, 0x00, 0x00, 0x00, 0x01, 0x00, 0x00, 0x00, 0xea, 0x03, 0x00, 0x00,
  0x00, 0x00, 0x0a, 0x00, 0x10, 0x00, 0x0c, 0x00, 0x08, 0x00, 0x04, 0x00,
  0x0a, 0x00, 0x00, 0x00, 0x02, 0x00, 0x00, 0x00, 0x02, 0x00, 0x00, 0x00,
  0x04, 0x00, 0x00, 0x00, 0x06, 0x00, 0x00, 0x00, 0x32, 0x2e, 0x31, 0x33,
  0x2e, 0x30, 0x00, 0x00, 0xe2, 0xe7, 0xff, 0xff, 0x04, 0x00, 0x00, 0x00,
  0x10, 0x00, 0x00, 0x00, 0x31, 0x2e, 0x31, 0x34, 0x2e, 0x30, 0x00, 0x00,
  0x00, 0x00, 0x00, 0x00, 0x00, 0x00, 0x00, 0x00, 0x4c, 0xdc, 0xff, 0xff,
  0x50, 0xdc, 0xff, 0xff, 0x54, 0xdc, 0xff, 0xff, 0x58, 0xdc, 0xff, 0xff,
  0x5c, 0xdc, 0xff, 0xff, 0x60, 0xdc, 0xff, 0xff, 0x64, 0xdc, 0xff, 0xff,
  0x1a, 0xe8, 0xff, 0xff, 0x04, 0x00, 0x00, 0x00, 0x00, 0x02, 0x00, 0x00,
  0x89, 0x63, 0x6b, 0x3e, 0x80, 0x44, 0x93, 0x3e, 0xd2, 0xa2, 0x25, 0xbd,
  0x8c, 0x3d, 0x31, 0xbe, 0xd5, 0xdf, 0xa5, 0xbe, 0x23, 0x9d, 0xfb, 0x3d,
  0x66, 0xb3, 0x39, 0xbe, 0xa8, 0xd5, 0x10, 0xbf, 0xe3, 0xd8, 0xb1, 0xbe,
  0x69, 0x74, 0xcd, 0xbe, 0x8f, 0xc0, 0xe0, 0x3d, 0x65, 0xb8, 0x13, 0xbf,
  0xdc, 0xc8, 0x0d, 0x3c, 0x65, 0x0f, 0x6c, 0xbe, 0xad, 0x62, 0x80, 0x3e,
  0xd3, 0x8a, 0x19, 0xbd, 0xe8, 0x77, 0x7e, 0x3e, 0xb0, 0xa8, 0x04, 0x3e,
  0x26, 0x88, 0x37, 0x3e, 0x4d, 0xef, 0x6d, 0xbb, 0xe5, 0x26, 0x55, 0xbe,
  0x4e, 0x94, 0x99, 0x3e, 0xff, 0x02, 0xdd, 0xbe, 0xe3, 0x5d, 0x0e, 0xbf,
  0x0d, 0x18, 0x07, 0xbf, 0x80, 0xd8, 0xd1, 0x3d, 0x1c, 0xc4, 0xa4, 0x3d,
  0xaa, 0x48, 0x7a, 0xbe, 0x6b, 0x74, 0x64, 0x3e, 0xc6, 0x60, 0x06, 0xbf,
  0xc4, 0x70, 0xce, 0xbe, 0xf0, 0x7e, 0x17, 0x3e, 0x21, 0xcc, 0xb6, 0x3e,
  0x9e, 0x12, 0xc9, 0x3e, 0xbe, 0x09, 0xbc, 0xbe, 0x01, 0xf6, 0x00, 0x3f,
  0xd0, 0xce, 0xf4, 0x3d, 0x0a, 0x58, 0x0f, 0x3e, 0xc4, 0xe2, 0x1f, 0x3f,
  0xa4, 0x8b, 0x01, 0xbe, 0xde, 0x33, 0xf5, 0x3e, 0x71, 0x5a, 0xfd, 0x3c,
  0xfa, 0xe8, 0xd3, 0x3e, 0xbc, 0xfc, 0x1e, 0xbe, 0x5a, 0x3e, 0x10, 0x3f,
  0xac, 0x90, 0x47, 0x3d, 0xeb, 0xb2, 0xe0, 0xbe, 0x4d, 0x14, 0x85, 0xbe,
  0xb0, 0x95, 0x44, 0xbe, 0x6c, 0xaf, 0xdc, 0x3e, 0x89, 0xe4, 0x85, 0x3e,
  0x6b, 0x6a, 0x01, 0xbf, 0x68, 0x12, 0x6c, 0xbe, 0x98, 0x5e, 0xcf, 0x3e,
  0xad, 0xca, 0x6e, 0xbe, 0x8e, 0x08, 0x0b, 0x3f, 0x4b, 0x53, 0x1a, 0xbf,
  0xab, 0x93, 0x3a, 0xbe, 0x7c, 0xbf, 0x9b, 0x3e, 0x95, 0xe5, 0xae, 0xbe,
  0x05, 0x9e, 0xda, 0x3e, 0x18, 0x77, 0x9a, 0xbe, 0xcf, 0x07, 0x07, 0x3f,
  0xb1, 0x5d, 0xde, 0xbd, 0xd6, 0xa1, 0xa1, 0xbe, 0xfd, 0xc7, 0xdc, 0xbd,
  0x19, 0x55, 0x05, 0x3e, 0x24, 0x05, 0x9d, 0x3d, 0x33, 0xb6, 0xf6, 0x3e,
  0xf9, 0x6e, 0x07, 0x3f, 0x5b, 0xbb, 0x79, 0xbe, 0x1e, 0xef, 0xda, 0xbe,
  0xbd, 0xf6, 0x78, 0xbe, 0x99, 0x0d, 0x8e, 0x3e, 0x59, 0x04, 0xf6, 0xbc,
  0x74, 0x40, 0xb9, 0xbd, 0xa3, 0x9f, 0x4c, 0x3d, 0xb1, 0x6d, 0xaf, 0x3e,
  0xfb, 0x88, 0x71, 0x3e, 0x2d, 0xb7, 0xaf, 0x3c, 0x1e, 0x85, 0x84, 0x3e,
  0x97, 0x51, 0xa4, 0x3e, 0x2b, 0xc9, 0x08, 0xbf, 0x4b, 0x0f, 0xbd, 0xbe,
  0x3b, 0x4d, 0xac, 0xbe, 0x3c, 0x28, 0x27, 0x3e, 0xf8, 0x07, 0x7c, 0xbe,
  0xbc, 0xb8, 0x09, 0xbf, 0x8a, 0xf2, 0xf2, 0x3e, 0xaa, 0x27, 0xf6, 0x39,
  0xc8, 0xd2, 0x42, 0xbd, 0x62, 0xd6, 0x06, 0x3e, 0x63, 0x81, 0x1b, 0x3e,
  0x73, 0x7b, 0x13, 0xbf, 0xf3, 0xf1, 0x9a, 0xbd, 0xb2, 0xa1, 0xc3, 0x3e,
  0x1f, 0xdd, 0x66, 0x3e, 0x60, 0x02, 0x3a, 0xbf, 0x56, 0xac, 0x90, 0xbe,
  0x6b, 0x29, 0xb1, 0x3e, 0x4d, 0xe7, 0x53, 0xbe, 0xbf, 0x70, 0x9b, 0x3e,
  0x58, 0x25, 0x11, 0xbf, 0xe6, 0xb1, 0x04, 0xbf, 0xdc, 0x82, 0x14, 0xbe,
  0xc9, 0x14, 0xba, 0x3e, 0x40, 0xd4, 0x55, 0x3e, 0x7a, 0x7d, 0xf7, 0xbe,
  0xa3, 0x27, 0x0a, 0xbe, 0xb6, 0x8a, 0x62, 0x3e, 0x4b, 0xb1, 0xf7, 0x3c,
  0xcb, 0x72, 0x3f, 0x3e, 0x15, 0x92, 0xbe, 0xbe, 0x51, 0x1a, 0x11, 0x3e,
  0xf6, 0xfd, 0x95, 0x3c, 0xaf, 0x8e, 0x0f, 0xbf, 0x09, 0xe7, 0xb6, 0xbe,
  0x2e, 0x34, 0xcd, 0x3e, 0x58, 0x97, 0xb4, 0xbe, 0x05, 0xb2, 0x07, 0xbf,
  0x2d, 0xb0, 0x1e, 0xbe, 0xe0, 0xa7, 0x90, 0x3d, 0x58, 0x05, 0xce, 0xbe,
  0x8e, 0x00, 0xc3, 0xbe, 0xcc, 0x78, 0xfd, 0xbd, 0xf8, 0xd7, 0xcc, 0xbe,
  0xda, 0x62, 0x2e, 0x3d, 0xf5, 0xdf, 0x6b, 0x3e, 0x26, 0xea, 0xff, 0xff,
  0x04, 0x00, 0x00, 0x00, 0x00, 0x08, 0x00, 0x00, 0xbc, 0x16, 0x44, 0x3e,
  0x55, 0xda, 0xaa, 0xbe, 0x44, 0x2c, 0x03, 0xbe, 0x42, 0xeb, 0x87, 0x3e,
  0xff, 0x0d, 0x42, 0x3e, 0x52, 0xb2, 0x31, 0xbe, 0x44, 0x50, 0xbb, 0x3d,
  0xcf, 0x47, 0xae, 0x3e, 0x25, 0x68, 0xc6, 0xbd, 0x88, 0xbe, 0x7b, 0xbe,
  0x78, 0x85, 0x15, 0x3d, 0xa6, 0x15, 0x43, 0xbe, 0xeb, 0x1b, 0x48, 0xbe,
  0x54, 0x42, 0x57, 0xbe, 0x90, 0xd6, 0x88, 0x3d, 0x68, 0x4d, 0xaa, 0xbe,
  0xd0, 0x58, 0x20, 0xbe, 0xbf, 0x1d, 0x75, 0xbe, 0x35, 0x7c, 0xf8, 0xbe,
  0xac, 0xf6, 0xe7, 0x3e, 0x29, 0x5f, 0x93, 0xbe, 0x6c, 0x6a, 0xb3, 0xbd,
  0x55, 0x20, 0x1f, 0xbe, 0xa0, 0x8e, 0xe4, 0xbc, 0xd9, 0x79, 0x33, 0xbe,
  0x48, 0x6f, 0x49, 0x3e, 0x10, 0xb9, 0x6a, 0x3d, 0x9e, 0x75, 0x3c, 0x3e,
  0x99, 0x9f, 0x72, 0xbc, 0xc4, 0x1f, 0x03, 0x3e, 0x38, 0xb2, 0x8a, 0xbe,
  0x6d, 0x87, 0x14, 0x3e, 0xea, 0x8f, 0x7b, 0xbe, 0x60, 0xe5, 0x0e, 0x3d,
  0x90, 0x12, 0xc4, 0x3e, 0x38, 0x5a, 0xc9, 0x3e, 0x30, 0x74, 0xba, 0x3e,
  0x80, 0x39, 0xe7, 0xbd, 0xc4, 0x22, 0x0e, 0xbe, 0xb4, 0x71, 0xdc, 0x3d,
  0xc6, 0xd0, 0x82, 0x3e, 0x53, 0x69, 0xb1, 0xbc, 0x40, 0x0e, 0x0a, 0x3c,
  0xe6, 0xf1, 0x6a, 0x3e, 0xf3, 0x91, 0xa9, 0xbd, 0xcc, 0x30, 0xbc, 0xbe,
  0xc0, 0x38, 0x87, 0xbc, 0x00, 0xdd, 0xb5, 0x3d, 0x4d, 0x70, 0x36, 0x3d,
  0x49, 0x40, 0xcb, 0x3d, 0xbc, 0xb7, 0x6c, 0x3e, 0x64, 0xe1, 0x1e, 0x3e,
  0xd6, 0x92, 0xc2, 0xbe, 0xc0, 0x80, 0x05, 0x3e, 0x1d, 0xaf, 0x10, 0xbe,
  0xca, 0x63, 0xfc, 0xbd, 0x02, 0xb3, 0x77, 0x3e, 0x95, 0x3f, 0x16, 0xbd,
  0xe2, 0xa6, 0x49, 0xbe, 0xbc, 0x0e, 0x2f, 0xbd, 0xf0, 0x9f, 0xcc, 0xbd,
  0xdb, 0xd3, 0x95, 0x3e, 0xca, 0xab, 0xe2, 0xbd, 0xa8, 0xfb, 0x04, 0x3e,
  0xdd, 0x60, 0x08, 0xbe, 0x47, 0x1b, 0xd8, 0xbd, 0xc7, 0x0b, 0xdf, 0x3e,
  0x61, 0xd1, 0x5c, 0xbe, 0x73, 0x25, 0x93, 0x3e, 0x32, 0x28, 0x0a, 0x3e,
  0xf6, 0x56, 0x4d, 0x3e, 0x4e, 0xf9, 0x6b, 0x3e, 0xc2, 0xe0, 0x2e, 0xbe,
  0xd3, 0x96, 0xc3, 0x3d, 0x90, 0x1b, 0x02, 0xbd, 0x5b, 0x95, 0xab, 0x3e,
  0x78, 0x3d, 0xb7, 0xbd, 0xa0, 0xeb, 0x89, 0xbe, 0xbe, 0xc1, 0x1c, 0x3e,
  0xe4, 0x0c, 0x9b, 0xbd, 0x2a, 0xee, 0x64, 0xbe, 0xad, 0x27, 0x14, 0x3e,
  0x97, 0x96, 0x1c, 0x3e, 0x7f, 0x15, 0x44, 0xbe, 0xcb, 0x0f, 0x31, 0xbe,
  0xea, 0x54, 0x42, 0x3e, 0x60, 0xc0, 0x83, 0xbe, 0x30, 0x4c, 0x2f, 0x3d,
  0xe0, 0xf9, 0x8d, 0xbd, 0xda, 0x0c, 0xd0, 0x3d, 0x26, 0x87, 0x8a, 0xbe,
  0x87, 0x72, 0x5a, 0xbc, 0x12, 0x8e, 0x8e, 0x3d, 0x14, 0x5d, 0xc6, 0x3c,
  0x78, 0xab, 0x88, 0xbd, 0x1c, 0x7e, 0xb2, 0x3e, 0xdc, 0x00, 0x98, 0x3d,
  0x50, 0x62, 0xe2, 0xbe, 0x5d, 0x1f, 0x5a, 0xbe, 0x7c, 0x53, 0x1b, 0xbe,
  0x84, 0xab, 0x7c, 0xbe, 0x98, 0x44, 0x14, 0x3d, 0xa0, 0x0e, 0x46, 0xbe,
  0xdb, 0xa3, 0x49, 0xbe, 0xee, 0x46, 0x83, 0xbe, 0x75, 0x62, 0xa2, 0x3e,
  0x79, 0x4f, 0xaa, 0x3e, 0x19, 0x45, 0x27, 0x3e, 0x65, 0x79, 0xb5, 0xbd,
  0x4c, 0x7d, 0x0a, 0x3f, 0x00, 0x79, 0x80, 0x3b, 0x11, 0x00, 0xb9, 0x3d,
  0xf9, 0xb9, 0xc9, 0x3d, 0x4a, 0x3f, 0x8e, 0x3e, 0x9a, 0x0e, 0x04, 0xbe,
  0x04, 0x33, 0x60, 0x3d, 0xe6, 0xaa, 0x4e, 0x3e, 0x2e, 0x42, 0x6d, 0x3e,
  0xbe, 0x78, 0x9b, 0xbe, 0x41, 0x3c, 0xb3, 0x3e, 0xec, 0xd1, 0xe9, 0x3e,
  0x63, 0xbf, 0xb6, 0x3e, 0x80, 0x18, 0x83, 0xbc, 0x30, 0x53, 0x79, 0xbe,
  0x9c, 0x54, 0x7a, 0x3e, 0x89, 0x40, 0x87, 0xbd, 0x7b, 0xcc, 0x8c, 0xbe,
  0x5c, 0x01, 0x8b, 0x3d, 0xc6, 0xfe, 0x26, 0x3e, 0x3c, 0xea, 0xf9, 0xbd,
  0x7d, 0x9d, 0xe2, 0xbb, 0x5e, 0x72, 0x70, 0x3d, 0x91, 0x61, 0xa3, 0xbc,
  0xea, 0x72, 0x1e, 0x3e, 0xe9, 0x94, 0x68, 0xbe, 0x3a, 0x6f, 0x26, 0x3e,
  0x9e, 0xee, 0xee, 0x3e, 0x16, 0xa8, 0xe2, 0x3e, 0xe5, 0x95, 0x44, 0xbe,
  0x55, 0xb8, 0x96, 0x3c, 0x4f, 0x8b, 0xc4, 0x3e, 0xe2, 0x5b, 0x8c, 0x3d,
  0xcd, 0xaa, 0x82, 0xbe, 0xaa, 0xbe, 0xcc, 0xbd, 0x91, 0x6d, 0x09, 0x3e,
  0x27, 0xe5, 0x91, 0xbd, 0x3a, 0x42, 0xcd, 0xbd, 0xb6, 0x91, 0x7e, 0x3d,
  0x7a, 0xb6, 0x52, 0xbd, 0xc5, 0x14, 0x8b, 0xbe, 0x00, 0x2a, 0x77, 0x3c,
  0x04, 0x54, 0xab, 0xbd, 0x19, 0x8a, 0xf4, 0xbd, 0x28, 0x31, 0x18, 0xbd,
  0x50, 0xe3, 0xd5, 0x3c, 0xde, 0xf3, 0xf4, 0xbd, 0x63, 0x98, 0x07, 0x3a,
  0xa8, 0x9f, 0xd9, 0x3b, 0x1c, 0x0f, 0x14, 0x3e, 0xaf, 0x0b, 0x8a, 0xbe,
  0x80, 0xee, 0xf0, 0xbd, 0x76, 0xce, 0xf2, 0xbd, 0x13, 0x9c, 0x82, 0x3d,
  0xe5, 0x2a, 0x9d, 0xbe, 0x92, 0xde, 0xf9, 0x3d, 0x63, 0x0b, 0xa3, 0xbe,
  0x24, 0x16, 0xad, 0xbd, 0x10, 0xeb, 0x77, 0x3d, 0x58, 0x67, 0x06, 0x3e,
  0x90, 0xc5, 0x2d, 0x3b, 0x53, 0x09, 0x80, 0x3e, 0x82, 0xec, 0x06, 0x3e,
  0x8a, 0x20, 0x0f, 0xbe, 0xb9, 0x7f, 0xc2, 0x3e, 0x00, 0x6f, 0xd7, 0xba,
  0x10, 0xe1, 0xa5, 0x3d, 0x7e, 0x85, 0xac, 0x3e, 0x56, 0x94, 0xc8, 0x3e,
  0xb0, 0x1d, 0x07, 0x3e, 0x50, 0xd8, 0x00, 0x3f, 0x1d, 0x00, 0x80, 0x3e,
  0x9b, 0xc0, 0xa7, 0xbe, 0x65, 0xd2, 0x55, 0xbe, 0x5f, 0x6c, 0x83, 0x3e,
  0x5e, 0xa2, 0x9b, 0x3d, 0x37, 0xb8, 0x04, 0xbd, 0x80, 0x23, 0xfd, 0x3c,
  0x2f, 0x5e, 0x5a, 0xbd, 0xab, 0x66, 0xa7, 0x3e, 0xcc, 0xf9, 0x88, 0xbb,
  0xbe, 0xcf, 0x6e, 0xbe, 0x1c, 0x9d, 0x1e, 0x3e, 0xd4, 0xa7, 0xe1, 0x3c,
  0xca, 0x37, 0xb5, 0xbe, 0xe9, 0x59, 0x3d, 0xbe, 0xe0, 0x34, 0xb7, 0xbd,
  0x36, 0x98, 0xe9, 0x3d, 0xa0, 0x46, 0xe5, 0xbc, 0xf0, 0x0b, 0xd3, 0xbc,
  0xd5, 0x37, 0x8a, 0x3e, 0x88, 0xee, 0x8a, 0xbe, 0x3a, 0x46, 0xdf, 0x3e,
  0xcd, 0x37, 0x34, 0xbe, 0xd7, 0x16, 0xe7, 0x3d, 0x88, 0x5e, 0x86, 0xbe,
  0x40, 0x87, 0xe9, 0x3d, 0xa2, 0xa5, 0x31, 0x3e, 0x17, 0x8c, 0xc5, 0x3e,
  0x78, 0x95, 0x44, 0xbe, 0xa3, 0x5f, 0x83, 0x3e, 0x7d, 0x1c, 0x05, 0x3e,
  0x92, 0xec, 0x8f, 0xbe, 0x33, 0x84, 0x9b, 0xbc, 0xe8, 0x56, 0x02, 0x3e,
  0xd8, 0xf7, 0xf9, 0x3d, 0x10, 0xad, 0x35, 0xbd, 0xe8, 0xc7, 0x1e, 0x3e,
  0xff, 0x2f, 0x60, 0x3e, 0x05, 0xca, 0x7b, 0xbe, 0x02, 0x5a, 0xa8, 0x3e,
  0xbe, 0xdb, 0xa8, 0xbe, 0xda, 0x13, 0x45, 0xbe, 0x68, 0x57, 0x1c, 0x3d,
  0xf2, 0x4e, 0x24, 0x3e, 0x9b, 0x96, 0xe2, 0xbe, 0x5a, 0xf2, 0xbb, 0x3e,
  0x3a, 0x75, 0xbe, 0x3d, 0x2c, 0x06, 0x3f, 0x3e, 0xc6, 0x97, 0xfb, 0x3d,
  0xe6, 0x6b, 0x56, 0x3e, 0x07, 0xa7, 0x4b, 0xbe, 0x98, 0x89, 0x9e, 0x3d,
  0xf0, 0x8d, 0xbf, 0xbe, 0x52, 0x4d, 0x83, 0x3e, 0x10, 0xb4, 0x68, 0xbd,
  0x24, 0x0a, 0xd5, 0x3e, 0x86, 0xab, 0x58, 0xbe, 0x9c, 0xeb, 0x99, 0xbe,
  0x6a, 0x43, 0x1b, 0x3e, 0xe9, 0x25, 0xad, 0x3e, 0x22, 0x4f, 0xfe, 0xbe,
  0x14, 0xec, 0x2a, 0x3e, 0x2f, 0x65, 0x28, 0x3e, 0x29, 0x0f, 0x20, 0xbe,
  0x3d, 0x7f, 0xa0, 0xbe, 0x17, 0xc4, 0x87, 0x3e, 0x80, 0x9a, 0x76, 0x3b,
  0x6f, 0x46, 0x9a, 0x3e, 0x24, 0xe8, 0x43, 0x3e, 0x49, 0x25, 0x65, 0x3e,
  0xe4, 0x4d, 0x8f, 0x3d, 0x9b, 0xa1, 0xc2, 0x3d, 0xa5, 0x6a, 0x0a, 0xbe,
  0x45, 0x40, 0x37, 0xbe, 0x68, 0x29, 0x06, 0xbd, 0x8a, 0x4f, 0xa5, 0x3e,
  0x4a, 0x16, 0x3b, 0xbe, 0xc1, 0xa6, 0x5f, 0x3e, 0x98, 0x46, 0xb4, 0x3d,
  0x26, 0xed, 0x3e, 0xbe, 0xba, 0x38, 0x4f, 0xbe, 0x95, 0x4a, 0x0e, 0xbe,
  0x52, 0x28, 0xb0, 0xbe, 0xf5, 0xca, 0x36, 0xbe, 0xf9, 0x80, 0x38, 0xbe,
  0x24, 0x44, 0xbf, 0x3e, 0xcc, 0x73, 0xab, 0x3d, 0x4f, 0x1d, 0xb4, 0x3e,
  0xd5, 0xba, 0x5f, 0x3e, 0x88, 0x38, 0x8b, 0x3d, 0xfe, 0x52, 0x5f, 0x3e,
  0x16, 0xce, 0xa7, 0x3e, 0x76, 0xc8, 0xd1, 0x3d, 0xeb, 0x31, 0x73, 0x3e,
  0x54, 0xcb, 0xee, 0xbd, 0x78, 0x27, 0x36, 0xbd, 0x0f, 0xce, 0x7f, 0xbe,
  0x58, 0x2a, 0x08, 0x3d, 0x1e, 0xc2, 0x92, 0xbe, 0x03, 0x58, 0x94, 0x3e,
  0x92, 0x5d, 0x2d, 0x3e, 0x5c, 0xf8, 0x7c, 0x3e, 0x40, 0xd5, 0xa1, 0x3d,
  0xcd, 0x1e, 0xdb, 0x3e, 0x7c, 0x82, 0x02, 0xbf, 0x94, 0x8b, 0xa8, 0x3e,
  0x28, 0xec, 0xbc, 0xbd, 0x61, 0x18, 0xc5, 0x3e, 0x86, 0x69, 0x5c, 0x3d,
  0xc8, 0x4c, 0x81, 0xbe, 0x24, 0xe4, 0x02, 0xbf, 0x5f, 0x01, 0x8a, 0x3e,
  0x7a, 0x49, 0xc4, 0x3c, 0x85, 0x97, 0x98, 0x3e, 0xa0, 0x6a, 0x6f, 0xbc,
  0xf0, 0xde, 0xa9, 0xbd, 0xbc, 0x8f, 0x1b, 0x3e, 0x5f, 0x74, 0xd7, 0x3e,
  0x79, 0x81, 0x9f, 0x3e, 0x9d, 0x76, 0xc6, 0xbc, 0x2d, 0x1f, 0xb4, 0x3e,
  0x6c, 0x0d, 0xe8, 0x3e, 0x22, 0xd9, 0x1e, 0x3e, 0x92, 0xc4, 0xc0, 0xbe,
  0x78, 0x54, 0x21, 0x3d, 0xf1, 0x43, 0x11, 0xbf, 0x2d, 0x37, 0x8c, 0xbe,
  0x31, 0x93, 0x7a, 0x3d, 0x80, 0xde, 0x0a, 0x3f, 0x8c, 0xa2, 0x4e, 0xbe,
  0x8b, 0x2a, 0x94, 0xbe, 0x40, 0x3d, 0x3f, 0x3d, 0x64, 0x51, 0xbf, 0x3e,
  0x12, 0x56, 0x8f, 0x3e, 0xd0, 0xaf, 0xff, 0xbc, 0x21, 0xf7, 0x0e, 0xbc,
  0x3f, 0x9f, 0xa8, 0x3e, 0x57, 0x98, 0xa5, 0x3d, 0xdf, 0x52, 0x9b, 0x3e,
  0x9e, 0x41, 0x7d, 0x3e, 0x75, 0x6f, 0xf9, 0x3e, 0x07, 0x9d, 0x8b, 0xbc,
  0x0d, 0x01, 0xc7, 0xbe, 0x2e, 0x88, 0xa8, 0x3e, 0x30, 0x96, 0xeb, 0x3d,
  0xf2, 0x84, 0x09, 0xbe, 0x20, 0xd5, 0xd2, 0x3c, 0x5d, 0x40, 0xb0, 0xbe,
  0x6f, 0xeb, 0xfe, 0x3e, 0x70, 0x01, 0xb1, 0x3e, 0xd0, 0xcf, 0x42, 0xbd,
  0x8d, 0x7c, 0x8c, 0xbe, 0x55, 0xd7, 0xcf, 0x3e, 0xef, 0xb3, 0x0b, 0x3f,
  0x83, 0x9f, 0x9b, 0xbe, 0x6b, 0xd5, 0xbd, 0x3c, 0x06, 0x68, 0x04, 0x3e,
  0xd6, 0xbb, 0x09, 0xbe, 0x56, 0x2c, 0x37, 0xbe, 0x7a, 0xc9, 0xad, 0xbe,
  0x57, 0xb6, 0x0c, 0xbe, 0xad, 0xc1, 0x29, 0xbe, 0x62, 0x44, 0x7f, 0x3e,
  0xaa, 0x79, 0x71, 0x3e, 0x92, 0xf1, 0x99, 0xbe, 0x87, 0x64, 0x7f, 0xbe,
  0xde, 0x22, 0x70, 0x3e, 0xf3, 0x1d, 0x62, 0xbe, 0x80, 0xe3, 0x9c, 0xbe,
  0x1c, 0xb8, 0xf6, 0x3d, 0x30, 0xa0, 0x1d, 0x3d, 0x09, 0xe9, 0x9a, 0x3e,
  0x57, 0xde, 0x6d, 0x3e, 0xe1, 0xc1, 0x0d, 0x3e, 0x77, 0x8e, 0x9f, 0xbe,
  0xfe, 0xec, 0xbd, 0x3e, 0x95, 0x87, 0x26, 0x3e, 0x6e, 0x06, 0xb1, 0xbe,
  0x3c, 0xe1, 0x9c, 0x3d, 0x60, 0xcf, 0xc8, 0xbd, 0x1c, 0xc1, 0xb5, 0x3e,
  0xf4, 0xaf, 0xd0, 0xbc, 0xd8, 0x21, 0xd9, 0xbd, 0x29, 0x2a, 0xfa, 0xbe,
  0x5a, 0x38, 0x6e, 0x3e, 0x30, 0x5f, 0x65, 0x3e, 0x6b, 0xaa, 0xb2, 0x3e,
  0x26, 0x4c, 0xb3, 0x3e, 0xdd, 0x81, 0x30, 0x3e, 0x15, 0x0d, 0x53, 0xbd,
  0x3f, 0xba, 0xea, 0xbd, 0x69, 0xbd, 0x5a, 0xbe, 0x36, 0x02, 0xec, 0xbd,
  0xb8, 0x3e, 0x98, 0xbe, 0xef, 0xd5, 0x80, 0xbe, 0x2c, 0xbc, 0xca, 0x3d,
  0xaa, 0xdb, 0x2c, 0x3e, 0x6c, 0xe9, 0xd6, 0x3e, 0xf8, 0x9a, 0x58, 0xbd,
  0x78, 0x7d, 0x52, 0xbe, 0x97, 0xc9, 0xef, 0xbd, 0x6b, 0x64, 0xa7, 0x3e,
  0x58, 0xac, 0x01, 0xbe, 0x82, 0x26, 0x0f, 0xbe, 0x3a, 0x4b, 0x56, 0x3d,
  0x9d, 0x9d, 0xd0, 0x3e, 0x34, 0x76, 0xbd, 0x3e, 0xfd, 0x36, 0xb8, 0x3e,
  0x94, 0x93, 0x92, 0xbd, 0xda, 0x24, 0x4a, 0x3e, 0x98, 0xbe, 0x00, 0x3d,
  0x41, 0x16, 0x88, 0x3e, 0xa1, 0xaa, 0xc5, 0xbd, 0xfb, 0xf9, 0x98, 0x3d,
  0xe2, 0x1c, 0x8a, 0xbe, 0x83, 0xe7, 0xe3, 0xbc, 0x9f, 0x42, 0xc6, 0x3e,
  0xd7, 0x02, 0xdf, 0xbe, 0xb8, 0x7b, 0x07, 0xbe, 0x1c, 0x7c, 0x1e, 0x3e,
  0x4c, 0xd2, 0x14, 0x3e, 0x71, 0x8d, 0x6d, 0x3c, 0xb0, 0xf9, 0x89, 0x3e,
  0xf5, 0x07, 0xa2, 0xbe, 0xac, 0xee, 0x87, 0xbd, 0x58, 0x95, 0xc0, 0xbd,
  0xf7, 0xd4, 0x91, 0x3e, 0x3c, 0xeb, 0xde, 0x3d, 0x57, 0x7e, 0x82, 0x3e,
  0x6a, 0x07, 0xb4, 0xbe, 0xde, 0x1a, 0x4f, 0x3e, 0xa5, 0x64, 0xc1, 0xbc,
  0x2c, 0x27, 0x4f, 0xbe, 0x76, 0x18, 0x60, 0x3e, 0x90, 0xf3, 0x29, 0x3d,
  0x85, 0x9f, 0x2d, 0xbe, 0x1e, 0xab, 0x92, 0xbe, 0xa8, 0x5a, 0x91, 0x3d,
  0x57, 0x01, 0xb2, 0xbe, 0xca, 0xdb, 0xa6, 0xbe, 0x2b, 0x46, 0x87, 0x3e,
  0x7b, 0xa0, 0xad, 0x3e, 0x28, 0xd6, 0x10, 0x3e, 0x03, 0x19, 0x87, 0xbe,
  0xf3, 0x4f, 0xa8, 0x3e, 0x80, 0x86, 0x72, 0xbc, 0x5b, 0xe1, 0x1e, 0xbe,
  0x71, 0xb1, 0x91, 0xbe, 0xd2, 0xfb, 0x8d, 0xbe, 0xb0, 0xbd, 0x09, 0x3e,
  0xc3, 0x00, 0x0d, 0xbe, 0x30, 0xd5, 0x80, 0x3d, 0xf2, 0xb9, 0xea, 0xbd,
  0xbd, 0x1b, 0x96, 0xbe, 0x7b, 0x42, 0x97, 0x3e, 0xbd, 0xf4, 0x03, 0x3f,
  0x2e, 0xef, 0xd2, 0x3e, 0xc7, 0x21, 0x93, 0xbe, 0x58, 0xac, 0x4f, 0x3d,
  0x44, 0xa4, 0x90, 0xbe, 0x7a, 0xfe, 0x27, 0x3e, 0xa8, 0x64, 0x17, 0x3e,
  0xa7, 0x12, 0x99, 0x3e, 0x51, 0xe6, 0x1b, 0xbf, 0x97, 0x59, 0x91, 0x3d,
  0x34, 0x88, 0x71, 0xbd, 0xf0, 0x64, 0xdb, 0x3c, 0x73, 0x75, 0x17, 0xbe,
  0x0e, 0xbe, 0x03, 0xbe, 0x44, 0x8e, 0x0b, 0xbf, 0x3d, 0xd3, 0x1c, 0xbf,
  0xed, 0x32, 0x54, 0xbe, 0x84, 0xc0, 0x58, 0x3d, 0x52, 0x0f, 0x50, 0x3e,
  0x54, 0x98, 0xd4, 0x3d, 0xc6, 0x61, 0x18, 0x3e, 0x0d, 0xd5, 0x01, 0xbe,
  0x76, 0xed, 0x74, 0x3e, 0xc8, 0xd9, 0x62, 0xbd, 0x89, 0xd0, 0xa9, 0x3d,
  0xd7, 0x2d, 0xc7, 0x3d, 0x8a, 0x2e, 0x1f, 0x3e, 0x6d, 0x59, 0xb1, 0xbe,
  0xcf, 0xa7, 0x1a, 0x3e, 0x00, 0xe7, 0xa9, 0x3e, 0x5e, 0x1e, 0xcb, 0x3d,
  0x78, 0x54, 0x20, 0x3e, 0x3f, 0x8a, 0x00, 0x3f, 0xb2, 0x3a, 0xfb, 0x3e,
  0xb8, 0xf9, 0x6e, 0x3d, 0xaa, 0x21, 0x3f, 0x3e, 0x8a, 0xa5, 0x55, 0xbe,
  0x19, 0xfb, 0xec, 0x3e, 0x71, 0x0f, 0x2b, 0x3e, 0x68, 0x9b, 0xa6, 0x3d,
  0xda, 0xd6, 0xa3, 0xbe, 0xb8, 0xeb, 0xbc, 0xbb, 0x48, 0x30, 0x73, 0x3e,
  0x6a, 0x46, 0x79, 0x3e, 0x9b, 0x23, 0xc4, 0xbc, 0x03, 0xef, 0x10, 0x3d,
  0xd9, 0xde, 0xa8, 0xbe, 0xd2, 0x00, 0xc2, 0xbe, 0x63, 0x6d, 0x1a, 0x3e,
  0x5b, 0x91, 0x85, 0x3e, 0x68, 0x78, 0xe3, 0xbd, 0x90, 0xf5, 0x96, 0xbe,
  0x6b, 0x24, 0xa4, 0xbe, 0x6f, 0x36, 0x86, 0xbd, 0x95, 0xd9, 0x05, 0xbe,
  0x70, 0x7a, 0xcc, 0x3c, 0xf8, 0x9d, 0x9e, 0x3e, 0x07, 0x61, 0x04, 0x3e,
  0x02, 0x7f, 0x4a, 0x39, 0x5c, 0x84, 0x13, 0x3e, 0xc6, 0xb6, 0xf8, 0x3a,
  0xad, 0x67, 0xfd, 0xbe, 0xea, 0xfa, 0x94, 0x3e, 0xa5, 0x14, 0xf0, 0x3e,
  0xb5, 0x4d, 0xe5, 0xbe, 0xe5, 0x5a, 0xa7, 0xbe, 0xb0, 0xf9, 0xec, 0x3d,
  0xa6, 0x45, 0x7d, 0x3e, 0x0c, 0xfa, 0x88, 0xbd, 0x22, 0x0f, 0xbd, 0xbe,
  0xe2, 0x6e, 0x21, 0x3e, 0x25, 0xaa, 0x83, 0x3e, 0x44, 0x5c, 0x35, 0x3e,
  0xe4, 0x75, 0x99, 0xbd, 0xe9, 0x27, 0x4f, 0x3e, 0xe4, 0x64, 0x03, 0x3e,
  0xa3, 0x75, 0x01, 0x3f, 0x32, 0xf2, 0xff, 0xff, 0x04, 0x00, 0x00, 0x00,
  0x00, 0x01, 0x00, 0x00, 0xc7, 0x18, 0x84, 0xbe, 0xba, 0xca, 0xeb, 0xbe,
  0xd8, 0x82, 0x14, 0x3f, 0x0a, 0x65, 0xe0, 0x3e, 0x77, 0x42, 0xed, 0x3e,
  0x92, 0x66, 0x3c, 0xbe, 0x91, 0x1a, 0x26, 0xbf, 0xb8, 0xcc, 0xf4, 0x3b,
  0x64, 0xe3, 0xb4, 0x3e, 0x58, 0x3e, 0xa3, 0x3d, 0x62, 0x1e, 0xf8, 0xbe,
  0xfe, 0xf0, 0x64, 0xbe, 0x18, 0x58, 0x8c, 0xbe, 0x9a, 0xfe, 0x11, 0xbe,
  0x67, 0x0f, 0xe7, 0x3e, 0x63, 0x47, 0x8b, 0xbe, 0xf2, 0x5a, 0x36, 0xbf,
  0x96, 0xd3, 0xdb, 0xbe, 0xd2, 0x01, 0x15, 0x3f, 0xcc, 0x8b, 0xf9, 0x3e,
  0x2a, 0x11, 0xc8, 0xbe, 0x98, 0x46, 0xba, 0xbe, 0x26, 0x58, 0xbd, 0xbe,
  0x74, 0x38, 0x08, 0xbf, 0xa2, 0xa2, 0xdb, 0xbe, 0xf0, 0xfb, 0xc3, 0x3d,
  0x9a, 0xb4, 0x75, 0xbe, 0x58, 0xc9, 0x35, 0x3e, 0xa0, 0xf0, 0x9b, 0xbd,
  0x5c, 0xd3, 0x9f, 0x3e, 0xaa, 0x41, 0x2b, 0xbe, 0xc0, 0xc2, 0x22, 0xbd,
  0x02, 0xbd, 0xfb, 0xbe, 0x3f, 0xff, 0x92, 0xbe, 0xa4, 0xfe, 0x31, 0x3f,
  0x4e, 0xd2, 0x0d, 0xbe, 0x5d, 0x12, 0x34, 0x3e, 0x28, 0x11, 0x54, 0xbd,
  0xb4, 0xbe, 0x13, 0x3f, 0xf5, 0x88, 0x34, 0xbe, 0xdc, 0x55, 0xaf, 0xbd,
  0x42, 0x9a, 0xab, 0xbe, 0x3f, 0xc6, 0xcf, 0xbe, 0xcc, 0xf8, 0x39, 0x3e,
  0x1a, 0x92, 0x39, 0x3f, 0xa4, 0xad, 0x27, 0x3e, 0x0e, 0x78, 0x4e, 0xbd,
  0x5b, 0xb0, 0x72, 0xbc, 0x44, 0xd5, 0x2a, 0xbf, 0x4c, 0x06, 0xdf, 0x3e,
  0x67, 0x23, 0x34, 0x3f, 0x8e, 0xd7, 0x09, 0x3f, 0x18, 0x4d, 0x3a, 0x3d,
  0xde, 0x84, 0xa7, 0x3e, 0x01, 0xa4, 0x3b, 0x3f, 0xd9, 0xed, 0x8f, 0xbd,
  0x6f, 0x02, 0xf5, 0xbe, 0xf0, 0x34, 0x93, 0x3e, 0x84, 0xec, 0xb2, 0xbe,
  0x38, 0x81, 0x08, 0x3e, 0x3c, 0x35, 0x77, 0x3e, 0x50, 0x3c, 0xf2, 0xbe,
  0xe6, 0x95, 0x5b, 0x3e, 0x85, 0x78, 0xea, 0x3e, 0x3e, 0xf3, 0xff, 0xff,
  0x04, 0x00, 0x00, 0x00, 0x00, 0x01, 0x00, 0x00, 0x1b, 0xc9, 0x06, 0x3f,
  0x53, 0x52, 0x00, 0x3f, 0x34, 0x7d, 0x16, 0x3f, 0x84, 0xb3, 0x51, 0xbe,
  0xa5, 0x46, 0xea, 0x3a, 0x97, 0xb2, 0x96, 0xbc, 0x34, 0x1b, 0x6e, 0x3e,
  0x37, 0x38, 0xdb, 0xbe, 0x39, 0x40, 0x42, 0x37, 0x12, 0x53, 0x41, 0xbc,
  0xf4, 0x31, 0x30, 0x3e, 0x40, 0x25, 0x2a, 0x3e, 0x6d, 0xfc, 0x4e, 0xbf,
  0xed, 0x7c, 0x0f, 0xb9, 0x27, 0xd1, 0x31, 0x3f, 0x2f, 0xc0, 0xb0, 0xbd,
  0xc0, 0xcb, 0x02, 0xba, 0x39, 0x2c, 0xce, 0xbb, 0xd2, 0x7f, 0xad, 0xb8,
  0xed, 0x4c, 0x88, 0xbc, 0x55, 0x99, 0xe4, 0xb3, 0x6b, 0x92, 0x87, 0x35,
  0x45, 0x2d, 0x18, 0x39, 0x49, 0xec, 0x1c, 0xba, 0x62, 0x0a, 0x3f, 0x33,
  0xce, 0x5d, 0x62, 0x36, 0xcb, 0xbd, 0xfc, 0x3c, 0xcf, 0x68, 0xd6, 0xb0,
  0x70, 0x48, 0x59, 0xbc, 0x25, 0x89, 0xb8, 0xbc, 0x63, 0x5a, 0x06, 0xbd,
  0x49, 0x76, 0x1d, 0xbb, 0x2e, 0x1a, 0x89, 0xbd, 0xe3, 0xaf, 0x9f, 0x3e,
  0x59, 0x14, 0xa0, 0xbe, 0x2d, 0xfd, 0xee, 0x3e, 0x5c, 0x87, 0x60, 0x3c,
  0xf6, 0x53, 0x12, 0x3a, 0x44, 0x01, 0x3f, 0x3d, 0xf0, 0xbd, 0x49, 0xbe,
  0x15, 0x36, 0xbc, 0xb5, 0xf4, 0x5a, 0xcc, 0xb9, 0xf5, 0x9a, 0x84, 0xbe,
  0xff, 0xcb, 0x19, 0x3f, 0x88, 0x8c, 0xb3, 0xbd, 0x85, 0x92, 0x45, 0xbb,
  0x47, 0xe7, 0xa5, 0xbe, 0x7d, 0x49, 0xf0, 0x3e, 0xf5, 0x19, 0x3d, 0x3e,
  0xdd, 0xb7, 0x71, 0xbd, 0x0f, 0x7c, 0x0a, 0x3e, 0xa6, 0x9c, 0x0d, 0xbb,
  0xd5, 0x2a, 0xc0, 0xba, 0xc5, 0xca, 0x17, 0x3a, 0xec, 0x4e, 0xa0, 0xb1,
  0x1c, 0x41, 0x5d, 0xb7, 0xa4, 0x77, 0x83, 0x36, 0xc7, 0xbe, 0xbe, 0x3b,
  0xf8, 0xf0, 0xfd, 0x3c, 0x0e, 0x3f, 0x07, 0x3d, 0xd4, 0x04, 0x29, 0x3c,
  0xee, 0x7d, 0x0d, 0xbb, 0xcd, 0x14, 0xa0, 0xbe, 0xfb, 0xf4, 0x0c, 0xbd,
  0x4a, 0xf4, 0xff, 0xff, 0x04, 0x00, 0x00, 0x00, 0x00, 0x08, 0x00, 0x00,
  0x23, 0x8a, 0x1f, 0x3e, 0x3e, 0x04, 0x05, 0x3f, 0x9c, 0x61, 0x07, 0x3f,
  0x59, 0xc2, 0x5d, 0xbe, 0xd0, 0xff, 0x72, 0x3e, 0x30, 0x41, 0xa3, 0x3d,
  0x6a, 0xc1, 0x4c, 0x3e, 0xc1, 0xea, 0xb6, 0x3e, 0x1e, 0x3b, 0x62, 0xbe,
  0x2c, 0x85, 0x89, 0xbe, 0xf2, 0x7f, 0xe4, 0xbe, 0x3c, 0x09, 0x98, 0x3d,
  0x2d, 0x48, 0xc5, 0xbc, 0xd8, 0xf7, 0x14, 0x3c, 0xc0, 0xe3, 0xf9, 0x3e,
  0x7a, 0x4e, 0x22, 0x3e, 0x51, 0x61, 0x1c, 0xbe, 0xee, 0xd5, 0x39, 0x3e,
  0xaa, 0x01, 0x04, 0x3f, 0x25, 0x36, 0x26, 0xbf, 0x07, 0xbc, 0x72, 0xbc,
  0xdb, 0x37, 0xd5, 0x3e, 0x53, 0x56, 0x99, 0xbe, 0x94, 0x3a, 0x51, 0xbe,
  0xed, 0x67, 0xae, 0xbe, 0xce, 0x9d, 0xaf, 0x3e, 0xaa, 0x6f, 0x7c, 0x3d,
  0x9a, 0x08, 0x84, 0x3e, 0x9d, 0xdf, 0xab, 0xbe, 0x53, 0xc8, 0x0d, 0x3f,
  0xba, 0xaf, 0xca, 0x3e, 0x03, 0xe4, 0x35, 0x3d, 0x2f, 0xda, 0xcc, 0x3e,
  0x84, 0xb5, 0xf7, 0x3e, 0x22, 0x22, 0x80, 0x3c, 0x98, 0x21, 0x1a, 0x3e,
  0x03, 0xaa, 0x05, 0xbe, 0x2c, 0x9a, 0x89, 0xbe, 0x41, 0x6b, 0x78, 0x3d,
  0x63, 0x8d, 0x59, 0xbd, 0x33, 0xe5, 0xab, 0x3e, 0x83, 0x53, 0xea, 0x3e,
  0xdd, 0x3a, 0x8c, 0x3e, 0x10, 0x49, 0x13, 0x3f, 0x68, 0xa2, 0x7c, 0x3e,
  0xeb, 0x0e, 0x8c, 0x3e, 0x4a, 0x3e, 0x73, 0x3e, 0xc0, 0x1a, 0x6e, 0xbc,
  0x1c, 0xe8, 0x54, 0xbc, 0x9e, 0xec, 0x4a, 0x3d, 0xd5, 0x42, 0xab, 0x3d,
  0x64, 0xe8, 0x95, 0x3d, 0x3c, 0x12, 0xea, 0x39, 0x8d, 0xe1, 0xbf, 0xbc,
  0x93, 0x6b, 0xa9, 0xbe, 0xf2, 0x41, 0x18, 0xbe, 0xd5, 0x40, 0x95, 0x3e,
  0xe3, 0x46, 0xfd, 0x3e, 0xb2, 0x77, 0x24, 0xbe, 0x7b, 0xf7, 0x01, 0x3f,
  0xa5, 0xf8, 0x54, 0x3e, 0x75, 0xd6, 0x01, 0x3f, 0x65, 0x05, 0xfc, 0x3e,
  0x0a, 0x03, 0x78, 0xbd, 0xe1, 0xbc, 0x90, 0x3e, 0xcb, 0xf8, 0x89, 0x3d,
  0x97, 0x07, 0xc8, 0x3e, 0x9d, 0x3f, 0xce, 0xbc, 0xf0, 0xf6, 0xa7, 0xbd,
  0x40, 0x62, 0x57, 0x3d, 0xce, 0x54, 0x11, 0xbe, 0xc5, 0xe9, 0xc9, 0xbd,
  0x2a, 0x96, 0x36, 0x3e, 0xe5, 0xce, 0x47, 0xbe, 0xbc, 0x14, 0xcc, 0xbe,
  0xda, 0xd1, 0x47, 0xbd, 0x14, 0xf7, 0xa7, 0xbe, 0x65, 0x00, 0xa6, 0x3e,
  0x9e, 0x29, 0x18, 0x3e, 0xea, 0x6a, 0x58, 0x3e, 0xb2, 0x6c, 0x86, 0xbc,
  0x8b, 0x0f, 0x4b, 0xbe, 0xab, 0x12, 0x0b, 0x3e, 0xba, 0x32, 0x61, 0xbd,
  0xbb, 0xfb, 0x85, 0x3e, 0x59, 0xfe, 0x05, 0x3f, 0x52, 0x2a, 0xe3, 0xbd,
  0x4f, 0xec, 0x30, 0x3e, 0x59, 0x39, 0x63, 0xbe, 0xab, 0x13, 0xd4, 0x3e,
  0x80, 0x6b, 0x41, 0xbe, 0xa6, 0xc8, 0xbf, 0x3e, 0x15, 0x98, 0x8e, 0x3e,
  0x17, 0xb9, 0x94, 0x3d, 0xb7, 0xed, 0xbc, 0x3e, 0x43, 0xb3, 0xa4, 0x3d,
  0x59, 0xc4, 0x89, 0xbe, 0xb2, 0x3a, 0x21, 0xbc, 0x68, 0xe3, 0x0b, 0xbd,
  0xa5, 0xb8, 0x58, 0x3e, 0xcf, 0xd3, 0x3a, 0xbe, 0xad, 0x4f, 0x92, 0x3e,
  0x8d, 0x0a, 0x9b, 0xbe, 0xb9, 0x5e, 0x8e, 0x3d, 0x91, 0x85, 0xb1, 0x3e,
  0x21, 0x7d, 0xe1, 0xbc, 0x79, 0x06, 0x2f, 0x3e, 0x1a, 0xc4, 0xea, 0x3e,
  0xd1, 0xd9, 0xb2, 0x3e, 0x18, 0xf5, 0x0b, 0xbe, 0xc9, 0x33, 0x6c, 0x3e,
  0xe4, 0x1b, 0xff, 0x3d, 0xb8, 0x75, 0xbc, 0xbd, 0x0e, 0xa1, 0x5e, 0x3e,
  0xef, 0x81, 0x2b, 0xbd, 0xe9, 0x9c, 0xf8, 0x3e, 0xbf, 0x6d, 0xa5, 0xbe,
  0x23, 0x60, 0xa2, 0x3e, 0x30, 0x15, 0xa2, 0x3c, 0x9b, 0xb3, 0x5d, 0xbe,
  0x01, 0x9e, 0x19, 0xbe, 0xfe, 0x70, 0xbd, 0x3e, 0xa2, 0xa6, 0x59, 0xbd,
  0x16, 0x63, 0x68, 0xbe, 0x56, 0xdf, 0x6b, 0xbc, 0xc1, 0x3a, 0x97, 0x3e,
  0xd8, 0x14, 0xf2, 0xbe, 0xc9, 0x8b, 0x33, 0x3e, 0xec, 0x0d, 0xab, 0x3d,
  0x48, 0xcf, 0x62, 0xbd, 0x68, 0x9b, 0x75, 0x3d, 0xf4, 0x3d, 0xc7, 0x3d,
  0xcc, 0xcb, 0x82, 0xbd, 0xa9, 0x65, 0xa8, 0xbe, 0xda, 0x4b, 0x32, 0xbe,
  0x00, 0x9d, 0xce, 0xbd, 0x93, 0xd5, 0x51, 0xbe, 0x40, 0xa1, 0xb2, 0xbd,
  0x8e, 0x53, 0x86, 0xbe, 0x62, 0x46, 0x24, 0x3e, 0xe6, 0xa2, 0x41, 0x3e,
  0x3c, 0xc8, 0x97, 0xbe, 0x42, 0x4d, 0x73, 0xbe, 0xad, 0x07, 0x1a, 0xbe,
  0x0c, 0x3f, 0x2c, 0xbe, 0x0a, 0xb1, 0x2e, 0x3e, 0x99, 0x17, 0x98, 0xbe,
  0x00, 0x7b, 0x0f, 0xbd, 0x54, 0x2e, 0x2a, 0xbe, 0x36, 0xe7, 0x1d, 0x3e,
  0x79, 0x55, 0x82, 0xbe, 0xea, 0x42, 0xda, 0xbd, 0x98, 0x24, 0x98, 0xbd,
  0x92, 0xf1, 0x8c, 0xbe, 0x04, 0xb8, 0x00, 0x3e, 0x20, 0xe4, 0xe4, 0xbd,
  0xe0, 0xdd, 0x7b, 0xbd, 0x1c, 0x37, 0x0f, 0xbe, 0x40, 0x8f, 0x88, 0xbe,
  0xb4, 0x7c, 0x05, 0x3e, 0xe5, 0x65, 0xb2, 0xbe, 0x84, 0x3c, 0x81, 0xbd,
  0x5b, 0xfa, 0x25, 0xbe, 0x66, 0xb0, 0xa9, 0xbe, 0xe0, 0x38, 0x45, 0xbc,
  0x27, 0xba, 0x9c, 0x3e, 0x3a, 0xc9, 0xff, 0xbd, 0x3e, 0xcf, 0x9d, 0xbe,
  0x0e, 0xc3, 0x6b, 0xbe, 0x47, 0x1c, 0x81, 0x3e, 0xa1, 0x78, 0x24, 0xbe,
  0xc9, 0x7f, 0x03, 0xbe, 0xa0, 0x11, 0x90, 0xbd, 0x20, 0x82, 0xce, 0x3d,
  0x5c, 0x1a, 0x84, 0xbd, 0x91, 0xe2, 0x9d, 0xbe, 0x4a, 0xe7, 0xe8, 0xbd,
  0xa0, 0xed, 0x9f, 0xbe, 0x4f, 0x8f, 0x5d, 0xbe, 0x74, 0x7f, 0x88, 0x3d,
  0x09, 0x14, 0x80, 0x3e, 0x12, 0xbf, 0x9c, 0xbe, 0x00, 0x00, 0xae, 0x3c,
  0x1b, 0xb3, 0x01, 0xbe, 0x0a, 0x39, 0x28, 0x3e, 0x6e, 0x0d, 0x10, 0x3e,
  0x30, 0x29, 0x22, 0x3d, 0x96, 0x0b, 0x43, 0x3e, 0xd9, 0x16, 0xa6, 0x3e,
  0x80, 0xa1, 0x6b, 0x3c, 0x32, 0x60, 0xeb, 0xbd, 0x3b, 0x3e, 0x5e, 0xbe,
  0x83, 0x9b, 0x13, 0xbc, 0xb3, 0x43, 0x54, 0x3e, 0x69, 0x33, 0x70, 0xbe,
  0xdb, 0x53, 0x38, 0xbe, 0xa6, 0xf4, 0x34, 0xbe, 0x3a, 0xbe, 0xe5, 0xbd,
  0x2f, 0xc2, 0xdb, 0xbd, 0x65, 0x11, 0x81, 0xbe, 0xb0, 0x5f, 0xb5, 0x3d,
  0x55, 0x7f, 0x6a, 0xbd, 0x4a, 0x4d, 0xcb, 0x3d, 0x8f, 0x1d, 0x90, 0x3d,
  0x2a, 0xa6, 0xca, 0x3c, 0xd2, 0x5b, 0x90, 0xbe, 0x9a, 0xaa, 0x2e, 0x3e,
  0x06, 0x36, 0x43, 0x3e, 0xd6, 0x79, 0x34, 0xbe, 0xac, 0xac, 0x03, 0xbe,
  0xbd, 0x8d, 0xa6, 0x3e, 0x21, 0x15, 0x03, 0x3e, 0x1a, 0x66, 0x06, 0xbe,
  0x3e, 0x3f, 0x8b, 0x3d, 0x79, 0xe9, 0x0c, 0xbe, 0x15, 0x50, 0xa7, 0x3c,
  0x8c, 0x28, 0x0b, 0x3e, 0x24, 0xbb, 0xb5, 0xbc, 0x7d, 0xc4, 0x45, 0x3e,
  0xfb, 0xf6, 0xd7, 0x3d, 0xf9, 0xee, 0x97, 0xbe, 0x3c, 0x55, 0x83, 0x3e,
  0x5f, 0xf6, 0x27, 0x3e, 0x4a, 0x35, 0x28, 0xbe, 0x11, 0x1d, 0xfe, 0xbd,
  0x85, 0xb9, 0xf7, 0x3d, 0x45, 0x44, 0x32, 0xbe, 0x4f, 0xbc, 0xd3, 0xbd,
  0x08, 0xd3, 0x88, 0xbe, 0x80, 0x28, 0x54, 0x3c, 0xfc, 0xaa, 0xb0, 0xbe,
  0x1c, 0x73, 0x46, 0xbd, 0x40, 0x4b, 0xbf, 0xbd, 0x5b, 0x7f, 0x89, 0x3e,
  0x45, 0xcb, 0xb4, 0xbb, 0x55, 0x56, 0x8d, 0xbe, 0xe2, 0x52, 0xe9, 0x3d,
  0xc2, 0x7e, 0x10, 0x3e, 0x6f, 0x36, 0x70, 0xbc, 0xb0, 0x68, 0x67, 0x3d,
  0x60, 0xfa, 0x5e, 0xbe, 0x81, 0x68, 0x38, 0x3e, 0x86, 0x69, 0x0f, 0xbe,
  0xa7, 0x54, 0xaa, 0xbe, 0x53, 0x45, 0xb6, 0xbe, 0xcc, 0x7e, 0xb1, 0xbe,
  0x90, 0xca, 0xb1, 0x3d, 0xf5, 0x04, 0x4b, 0xbe, 0x2b, 0xb4, 0x32, 0x3e,
  0x58, 0x2f, 0x8c, 0x3e, 0x6a, 0x48, 0xb0, 0xbe, 0x45, 0x43, 0x0a, 0xbe,
  0x40, 0xb8, 0x34, 0xbc, 0xd5, 0xd9, 0x18, 0xbe, 0x09, 0xf1, 0x59, 0xbc,
  0x6e, 0x3d, 0x8b, 0x3e, 0xc4, 0x02, 0xe6, 0x3d, 0xcc, 0xdf, 0x9a, 0xbe,
  0xf2, 0x1d, 0x61, 0x3e, 0x71, 0xa9, 0x8d, 0xbe, 0xde, 0x73, 0x36, 0x3e,
  0x20, 0xa4, 0x7d, 0xbd, 0xc7, 0xc9, 0x6e, 0xbe, 0xf0, 0x79, 0x64, 0xbd,
  0x7b, 0x88, 0x98, 0xbe, 0x5c, 0x3b, 0x8b, 0xbd, 0x80, 0x8f, 0xe7, 0xbb,
  0xcc, 0xe7, 0x81, 0xbe, 0x0e, 0x37, 0x6e, 0x3e, 0xac, 0x16, 0xc2, 0xbd,
  0x9d, 0xb8, 0x15, 0xbe, 0xa8, 0x5b, 0xec, 0xbd, 0xb5, 0x1c, 0xb2, 0xbe,
  0x68, 0xcf, 0x98, 0x3d, 0x84, 0xf6, 0xe7, 0xbd, 0x68, 0x42, 0xc1, 0x3d,
  0x60, 0xc7, 0x6b, 0xbc, 0x24, 0xb7, 0x8b, 0xbd, 0x80, 0x9e, 0x49, 0x3b,
  0xdb, 0xfc, 0x8d, 0x3e, 0x4b, 0x45, 0x90, 0x3e, 0x30, 0xa3, 0x07, 0x3d,
  0xcc, 0xb5, 0x49, 0xbe, 0x8b, 0xfa, 0x98, 0x3e, 0x45, 0xbd, 0x3c, 0xbe,
  0x6e, 0x8a, 0x50, 0xbe, 0x50, 0xdc, 0x19, 0xbd, 0x4c, 0xbf, 0x8a, 0xbe,
  0x03, 0x82, 0x98, 0xbe, 0x60, 0x5c, 0x24, 0xbc, 0x26, 0xfa, 0x44, 0x3e,
  0xd8, 0xc6, 0x97, 0xbe, 0x13, 0x5b, 0x35, 0xbe, 0x92, 0x03, 0x57, 0x3e,
  0x10, 0x57, 0xb2, 0xbd, 0x9c, 0xff, 0x69, 0xbe, 0x4d, 0xa3, 0xa7, 0x3e,
  0x30, 0x29, 0x87, 0x3c, 0x24, 0x8b, 0x36, 0xbe, 0x20, 0x02, 0x74, 0xbc,
  0xd8, 0x97, 0xa2, 0xbd, 0x8b, 0x4d, 0x70, 0xbe, 0x42, 0x0b, 0x71, 0x3e,
  0x5c, 0x5e, 0xad, 0xbd, 0x40, 0x49, 0x33, 0xbd, 0xf9, 0x89, 0x87, 0x3e,
  0x37, 0xdb, 0x09, 0xbe, 0x63, 0x32, 0x85, 0x3d, 0x76, 0x52, 0x8a, 0xbe,
  0x72, 0xe2, 0x52, 0x3e, 0x4f, 0x04, 0x5f, 0xbe, 0x00, 0xa2, 0xb0, 0xba,
  0x10, 0x98, 0x23, 0x3d, 0xf3, 0x73, 0x27, 0xbd, 0xf4, 0x68, 0x26, 0x3e,
  0x4d, 0xdf, 0xae, 0xbe, 0x6a, 0x6c, 0x51, 0x3e, 0x67, 0xec, 0x05, 0xbe,
  0x3a, 0xec, 0x3c, 0xbe, 0x28, 0x2c, 0xa8, 0x3e, 0x61, 0x27, 0xc9, 0x3e,
  0x73, 0x5a, 0x35, 0xbe, 0x61, 0x7f, 0xb2, 0x3e, 0x23, 0xc2, 0xed, 0xbd,
  0xc5, 0x9a, 0xa2, 0x3b, 0xd1, 0x85, 0xa7, 0x3e, 0x54, 0x66, 0xdf, 0x3e,
  0xe1, 0x32, 0xb5, 0xbc, 0xe0, 0xee, 0xa0, 0xbc, 0x8e, 0x15, 0x5d, 0xbc,
  0x37, 0x48, 0xbd, 0xbd, 0x13, 0x8c, 0xc3, 0xbe, 0xe1, 0xaa, 0x78, 0xbe,
  0xf3, 0x5f, 0xa3, 0x3e, 0x02, 0xfd, 0xf0, 0x3d, 0xfb, 0xe1, 0xae, 0x3e,
  0x2f, 0xce, 0xb7, 0xbe, 0xcf, 0x8b, 0x8d, 0x3e, 0xaa, 0xef, 0xb0, 0x3d,
  0x43, 0xd8, 0xdc, 0xbe, 0x7f, 0x0b, 0x03, 0x3f, 0xe5, 0xcc, 0xfa, 0xbd,
  0x18, 0x57, 0x3e, 0x3d, 0x08, 0x40, 0x5e, 0xbd, 0xda, 0x48, 0x61, 0xbe,
  0x17, 0xf6, 0xbe, 0x3e, 0x4e, 0x0a, 0x6d, 0xbe, 0x9b, 0xa4, 0xe4, 0x3e,
  0x6b, 0xa7, 0x8d, 0x3e, 0xed, 0xe9, 0x4c, 0xbe, 0x04, 0xde, 0x47, 0x3e,
  0x57, 0xb2, 0x36, 0x3c, 0xd1, 0x26, 0x80, 0xbd, 0xcf, 0x03, 0x98, 0xbe,
  0xab, 0xac, 0x06, 0x3f, 0x67, 0x08, 0x04, 0x3f, 0xaa, 0x62, 0x1f, 0xbe,
  0x03, 0xb0, 0x87, 0xbe, 0x9b, 0xb2, 0x8b, 0x3e, 0xbe, 0x19, 0x09, 0x3f,
  0x7e, 0x06, 0x6c, 0x3e, 0x41, 0x0e, 0x5e, 0x3d, 0x3e, 0x65, 0x47, 0xbe,
  0x6f, 0x94, 0xb5, 0xbd, 0x25, 0x25, 0xce, 0x3e, 0x6a, 0x1d, 0xe1, 0x3e,
  0x67, 0x02, 0xba, 0x3e, 0x5c, 0x71, 0xc2, 0xbd, 0x83, 0x58, 0xab, 0x3d,
  0xd4, 0xb0, 0xc0, 0x3c, 0xda, 0xd2, 0x5d, 0x3d, 0x11, 0xf3, 0x75, 0x3e,
  0x97, 0x65, 0x1a, 0xbe, 0xe0, 0x5a, 0x9b, 0x3e, 0x1c, 0x4f, 0xc2, 0xbd,
  0xfa, 0x59, 0x70, 0xbe, 0x6c, 0x6b, 0x0d, 0x3e, 0x64, 0xc5, 0xb0, 0x3e,
  0x0e, 0xe2, 0xa0, 0xbe, 0x33, 0xda, 0x7a, 0x3d, 0x81, 0x08, 0x82, 0x3d,
  0xe1, 0x14, 0xef, 0x3e, 0xb3, 0xfc, 0x83, 0xbe, 0x59, 0x98, 0xab, 0xbe,
  0x73, 0x42, 0x70, 0xbe, 0x1e, 0x12, 0x4a, 0xbe, 0x1f, 0xd4, 0x24, 0x3e,
  0x48, 0x64, 0x78, 0x3e, 0x2b, 0x15, 0x3d, 0x3e, 0xa5, 0xa6, 0xaf, 0x3e,
  0x90, 0x8b, 0x7d, 0xbe, 0x33, 0x4e, 0xa5, 0xbe, 0xed, 0x3c, 0xa7, 0x3e,
  0x22, 0x44, 0xdb, 0x3e, 0x5a, 0x0c, 0xfa, 0x3d, 0x56, 0xb2, 0x3c, 0xbd,
  0xca, 0xe4, 0xdb, 0xbc, 0xeb, 0x46, 0x08, 0x3e, 0x69, 0x9e, 0xdc, 0xbe,
  0x2c, 0x14, 0xa4, 0xbd, 0x16, 0x54, 0xdd, 0x3d, 0x89, 0x12, 0x0e, 0xbe,
  0x2e, 0xe3, 0xa2, 0xbe, 0xfa, 0x17, 0x04, 0x3f, 0xca, 0x8f, 0xca, 0x3e,
  0x4c, 0xfa, 0xc5, 0x3e, 0x76, 0xdd, 0x56, 0xbe, 0x83, 0x51, 0xa5, 0x3e,
  0x0a, 0x6f, 0x66, 0x3d, 0x18, 0xfd, 0x57, 0x3d, 0x58, 0x7c, 0x97, 0xbd,
  0x8f, 0x5e, 0x7f, 0x3e, 0xd3, 0x26, 0x84, 0x3e, 0x13, 0x08, 0xf0, 0xbd,
  0x91, 0xc7, 0x3a, 0xbe, 0x54, 0xb6, 0x2c, 0x3d, 0xb1, 0x66, 0x99, 0xbe,
  0x1e, 0xe0, 0xeb, 0xbd, 0xa2, 0x96, 0x67, 0x3e, 0xef, 0xa3, 0x47, 0x3d,
  0x98, 0xa5, 0x67, 0xbd, 0xef, 0x42, 0xa0, 0x3e, 0xca, 0x85, 0x49, 0xbe,
  0x40, 0x04, 0xb7, 0x3d, 0xf8, 0xbf, 0x92, 0x3d, 0xa8, 0xac, 0x5d, 0xbe,
  0xab, 0x6a, 0xc0, 0x3d, 0x3c, 0x71, 0xea, 0x3d, 0xd0, 0xfb, 0x56, 0x3c,
  0x55, 0x0c, 0xa6, 0xbd, 0x48, 0x79, 0x73, 0xbe, 0x8d, 0x19, 0x55, 0xbe,
  0xb5, 0x6c, 0x56, 0xbe, 0xd2, 0x55, 0x30, 0x3e, 0x58, 0x8b, 0x32, 0xbe,
  0x6e, 0xfb, 0x7d, 0x3e, 0x46, 0x74, 0x40, 0xbe, 0x8f, 0x82, 0xea, 0xbd,
  0x8e, 0x7f, 0xd5, 0xbd, 0xd4, 0x0a, 0xf1, 0xbd, 0x2c, 0xaf, 0x90, 0xbe,
  0xae, 0xdb, 0xb0, 0xbd, 0xc1, 0xaf, 0x6e, 0xbe, 0x7e, 0x8e, 0x78, 0x3e,
  0x3e, 0x47, 0x02, 0x3e, 0xcc, 0xce, 0x76, 0xbe, 0x41, 0xdf, 0xb7, 0x3e,
  0x67, 0xb4, 0x1a, 0xbe, 0x0f, 0x60, 0xa7, 0x3e, 0xe0, 0xf4, 0x23, 0x3e,
  0xa1, 0x82, 0xf4, 0x3e, 0x59, 0x19, 0x16, 0x3e, 0x7b, 0x95, 0xce, 0x3d,
  0x37, 0xce, 0x12, 0xbe, 0xd2, 0xfc, 0x07, 0x3f, 0x88, 0xad, 0x97, 0x3e,
  0xa3, 0x94, 0x9d, 0x3e, 0x18, 0x7a, 0x73, 0xbe, 0x9e, 0xb1, 0xc8, 0xbd,
  0xdf, 0x47, 0xf3, 0xbc, 0xfa, 0x6f, 0xb5, 0xbe, 0xe6, 0x7d, 0xde, 0x3e,
  0x18, 0x1a, 0xb1, 0x3e, 0x41, 0x4b, 0x8f, 0x3e, 0xf4, 0x08, 0xdf, 0xbd,
  0x89, 0x14, 0x21, 0x3e, 0xd9, 0xf1, 0xfb, 0x3d, 0x50, 0x20, 0x44, 0xbe,
  0x12, 0x0e, 0xcf, 0x3e, 0x5a, 0x29, 0xb0, 0x3e, 0xb3, 0xb8, 0x82, 0xbe,
  0x4c, 0x6a, 0x90, 0x3e, 0x94, 0x93, 0x8f, 0xbe, 0x5c, 0x8a, 0xe4, 0x3e,
  0xcb, 0x39, 0x05, 0x3e, 0x43, 0xc4, 0x84, 0xbd, 0xa8, 0x6c, 0x9d, 0xbe,
  0xc1, 0xf5, 0x17, 0xbe, 0x65, 0x97, 0xb2, 0xbd, 0xa7, 0xcb, 0x80, 0xbe,
  0x16, 0x28, 0xd6, 0x3b, 0x6f, 0x69, 0x7b, 0xbd, 0x05, 0x06, 0x3b, 0x3e,
  0x89, 0x81, 0xda, 0x3e, 0xb3, 0xee, 0x36, 0x3e, 0x48, 0x63, 0x0a, 0x3d,
  0xdd, 0xff, 0xf7, 0xbe, 0xdc, 0x91, 0x7c, 0xbd, 0xbe, 0x81, 0x26, 0x3e,
  0x63, 0x68, 0x0a, 0x3f, 0x3b, 0x0f, 0x0a, 0xbe, 0xf3, 0x37, 0xe8, 0x3e,
  0x5e, 0x9c, 0x81, 0x3e, 0x9b, 0x58, 0xef, 0x3e, 0xdd, 0xf7, 0xd4, 0x3e,
  0xd0, 0x5c, 0x92, 0xbe, 0xa2, 0x89, 0xe3, 0x3e, 0x85, 0x26, 0x8e, 0x3e,
  0xed, 0xc8, 0x73, 0xbd, 0x45, 0x66, 0xe4, 0x3e, 0x08, 0xc2, 0xfb, 0xbe,
  0xb8, 0x79, 0x4c, 0xbe, 0x1c, 0x12, 0x6e, 0xbe, 0x4f, 0xd0, 0x27, 0xbe,
  0x87, 0x0d, 0x97, 0x3e, 0x1c, 0xfe, 0x5c, 0x3b, 0x24, 0x49, 0xf0, 0x3d,
  0x85, 0x20, 0x23, 0xbe, 0x85, 0xdf, 0x1e, 0x3e, 0x83, 0xd9, 0x57, 0x3e,
  0xcc, 0x25, 0x02, 0xbe, 0xd5, 0xab, 0x03, 0x3d, 0x56, 0xfc, 0xff, 0xff,
  0x04, 0x00, 0x00, 0x00, 0x00, 0x02, 0x00, 0x00, 0xcd, 0x58, 0xab, 0xbd,
  0xfc, 0x9f, 0x8b, 0x3e, 0x46, 0xcd, 0x97, 0x3e, 0xd1, 0xdd, 0x74, 0x3e,
  0x16, 0xc3, 0xd9, 0x3d, 0x72, 0x99, 0x61, 0xbd, 0x8f, 0x0c, 0xf8, 0x3e,
  0x75, 0xfe, 0x04, 0xbe, 0x40, 0xaa, 0x48, 0xbd, 0x23, 0x0e, 0xe8, 0x3e,
  0xe8, 0xaf, 0xe0, 0x3e, 0x6f, 0x54, 0x96, 0xbd, 0xcb, 0xfe, 0xc1, 0xbd,
  0x2b, 0x54, 0x9e, 0x3e, 0x9e, 0x40, 0xcf, 0xbc, 0x60, 0xc0, 0x8a, 0xbe,
  0x16, 0xd3, 0x90, 0x3e, 0x41, 0x40, 0x27, 0xbc, 0xe4, 0x5b, 0xbc, 0xbe,
  0x30, 0x2f, 0xbe, 0x3d, 0x28, 0xc9, 0x1f, 0x3d, 0xa2, 0xf5, 0x8b, 0xbe,
  0xec, 0xd4, 0xb0, 0xbe, 0x76, 0x63, 0x5a, 0xbe, 0xdc, 0xad, 0x9a, 0x3e,
  0x89, 0x7d, 0x79, 0xbe, 0xe5, 0xe9, 0x70, 0x3e, 0xf1, 0x2e, 0xf4, 0x3d,
  0xfe, 0xb3, 0x18, 0x3f, 0x81, 0xa8, 0xaf, 0x3e, 0x92, 0x5b, 0xee, 0x3e,
  0x6e, 0xa6, 0x63, 0xbe, 0x6f, 0x1d, 0x91, 0xbe, 0xcb, 0x30, 0x6b, 0xbe,
  0xc8, 0x38, 0x0f, 0xbd, 0x16, 0x2b, 0xa8, 0xbe, 0xa0, 0xec, 0x6d, 0xbc,
  0x0f, 0x1c, 0x01, 0x3e, 0x58, 0x26, 0xf4, 0xbd, 0x1b, 0x8e, 0xf9, 0xbd,
  0x35, 0xa6, 0x9a, 0x3d, 0xc6, 0x60, 0xab, 0x3e, 0x1d, 0xfb, 0x32, 0xbe,
  0x22, 0x8a, 0xa4, 0xbd, 0x58, 0x3f, 0xca, 0x3d, 0x07, 0xce, 0xe5, 0x3e,
  0x5b, 0x16, 0x45, 0xbd, 0x83, 0xf0, 0xcd, 0xbe, 0xaa, 0x18, 0x1c, 0xbe,
  0xdd, 0x98, 0x10, 0x3f, 0x78, 0x11, 0x24, 0xbe, 0xed, 0x85, 0x08, 0x39,
  0xde, 0x0e, 0xb3, 0x3e, 0x56, 0xc8, 0xf3, 0x3e, 0x61, 0x87, 0xa9, 0x3e,
  0xd0, 0xae, 0xa5, 0xbe, 0x09, 0x40, 0x08, 0x3f, 0xf4, 0x44, 0x21, 0x3f,
  0xab, 0x5f, 0xe1, 0x3e, 0x2c, 0x14, 0x86, 0x3d, 0xaa, 0xf9, 0x87, 0x3e,
  0x20, 0xf4, 0x4c, 0xbe, 0x4d, 0xc0, 0x68, 0xbe, 0x7d, 0x3e, 0xb6, 0xbe,
  0xff, 0xc8, 0x33, 0x3c, 0x1e, 0xf0, 0x9a, 0x3e, 0xdd, 0xb8, 0x2f, 0xbe,
  0x0d, 0xdf, 0xd6, 0x3d, 0xd3, 0x15, 0x96, 0x3e, 0xa7, 0x7d, 0xc2, 0x3e,
  0x2d, 0x3b, 0x11, 0x3e, 0x72, 0x61, 0x43, 0x3d, 0xa9, 0xd0, 0x5c, 0x3d,
  0x62, 0x40, 0x88, 0x3e, 0xa1, 0xb9, 0xa5, 0x3e, 0x4f, 0xb5, 0x57, 0x3e,
  0xd3, 0xb0, 0x69, 0xbc, 0x81, 0xc3, 0x58, 0xbe, 0xe7, 0xb0, 0xc0, 0xbe,
  0xb5, 0x9f, 0x0e, 0x3f, 0xe1, 0x02, 0x30, 0xbd, 0x3e, 0x5d, 0x11, 0xbe,
  0x41, 0x89, 0x09, 0x3f, 0x3c, 0xea, 0x4b, 0x3e, 0x26, 0x82, 0xd2, 0xbc,
  0x8f, 0xbb, 0xd1, 0x3d, 0x8e, 0x5e, 0xa0, 0x3e, 0x37, 0x87, 0x80, 0xbb,
  0xd4, 0x03, 0xf5, 0xbd, 0x48, 0x32, 0xcb, 0xbd, 0xb0, 0x4f, 0x79, 0xbd,
  0x40, 0x67, 0x01, 0xbc, 0x47, 0xba, 0x4c, 0xbf, 0xce, 0xc5, 0xac, 0x3c,
  0xe4, 0xaf, 0x96, 0x3e, 0x10, 0x21, 0x80, 0xbb, 0x62, 0x37, 0x72, 0xba,
  0x14, 0x00, 0x42, 0x3e, 0x19, 0xac, 0xcf, 0xbe, 0x44, 0xf8, 0x7f, 0x3d,
  0x2e, 0x6b, 0x20, 0x3e, 0x45, 0xe8, 0xca, 0x3e, 0x75, 0xb9, 0xc7, 0x3e,
  0x60, 0x1d, 0xaf, 0x3e, 0x20, 0x11, 0x2e, 0x3e, 0xc0, 0x46, 0xd8, 0xbb,
  0xae, 0x4a, 0xab, 0xbe, 0x6e, 0x9e, 0xf6, 0x3c, 0x42, 0x21, 0x60, 0x3e,
  0xa0, 0x0b, 0x4a, 0xbe, 0x44, 0x80, 0xe0, 0x3e, 0xb0, 0xa7, 0xa0, 0xbe,
  0xe8, 0xa0, 0x82, 0x3e, 0x41, 0x26, 0x7d, 0xbe, 0x07, 0x3a, 0x50, 0xbe,
  0x3b, 0xd0, 0x75, 0xbe, 0xcd, 0x12, 0x25, 0x3f, 0x5f, 0x3a, 0xae, 0x3e,
  0x7f, 0x7f, 0xb8, 0xbc, 0x08, 0x7e, 0xf1, 0xbe, 0xed, 0x5b, 0x08, 0xbe,
  0x4e, 0x71, 0x3a, 0xbe, 0xef, 0xf8, 0x05, 0x3f, 0x57, 0x0c, 0xa4, 0xbd,
  0x98, 0xe4, 0x86, 0x3e, 0x55, 0x1b, 0xa8, 0xbe, 0x42, 0x6d, 0xd9, 0xbc,
  0x95, 0xe5, 0x02, 0xbe, 0x62, 0xfe, 0xff, 0xff, 0x04, 0x00, 0x00, 0x00,
  0x80, 0x00, 0x00, 0x00, 0x9d, 0x5c, 0xdf, 0x3a, 0xa7, 0x8a, 0x64, 0x38,
  0x15, 0xc8, 0x1e, 0x3e, 0x1c, 0x16, 0x3c, 0x3e, 0xfe, 0x96, 0x3b, 0xbc,
  0x00, 0x00, 0x00, 0x00, 0x15, 0xf4, 0x00, 0xbb, 0x23, 0x6c, 0x13, 0x3e,
  0x00, 0x00, 0x00, 0x00, 0x94, 0x2c, 0x6f, 0x3e, 0x40, 0x77, 0xab, 0xbd,
  0x69, 0x71, 0x30, 0x3e, 0x7e, 0xc0, 0x42, 0x3e, 0xce, 0x6c, 0x29, 0x3e,
  0x45, 0x95, 0x26, 0x3e, 0x00, 0x00, 0x00, 0x00, 0x83, 0x87, 0x46, 0x3e,
  0xb3, 0xcd, 0x92, 0x3d, 0x24, 0x77, 0x90, 0x3a, 0x1d, 0xa0, 0x8c, 0x3e,
  0x7b, 0xe5, 0x3b, 0xbb, 0xc7, 0x20, 0x07, 0x3e, 0x00, 0x00, 0x00, 0x00,
  0x87, 0x74, 0x62, 0xbd, 0x63, 0x37, 0x40, 0x3e, 0xfe, 0xd9, 0x00, 0x3e,
  0x9e, 0xa8, 0x12, 0xbc, 0x61, 0x8e, 0x7f, 0x3a, 0xfd, 0xbf, 0xaa, 0xbc,
  0xc6, 0xd3, 0x26, 0x3e, 0xbf, 0x57, 0x14, 0x39, 0xfe, 0x36, 0xca, 0xbd,
  0xee, 0xfe, 0xff, 0xff, 0x04, 0x00, 0x00, 0x00, 0x10, 0x00, 0x00, 0x00,
  0xae, 0xc3, 0x82, 0x3c, 0x00, 0x00, 0x00, 0x00, 0x05, 0x48, 0x15, 0x3e,
  0xd9, 0x92, 0x7f, 0xbd, 0x0a, 0xff, 0xff, 0xff, 0x04, 0x00, 0x00, 0x00,
  0x40, 0x00, 0x00, 0x00, 0xe7, 0xef, 0x17, 0xbd, 0xe5, 0xf9, 0x0c, 0x3e,
  0x76, 0xc0, 0x7a, 0xbd, 0xec, 0x4d, 0x28, 0x3e, 0x00, 0x00, 0x00, 0x00,
  0x00, 0x00, 0x00, 0x00, 0x8a, 0x3a, 0x5f, 0xbc, 0x7b, 0x9c, 0x18, 0xbd,
  0x00, 0x00, 0x00, 0x00, 0xeb, 0x4f, 0xe6, 0xbb, 0x3e, 0x38, 0x08, 0x3d,
  0x84, 0x61, 0x1e, 0x3e, 0xcf, 0xaf, 0xda, 0x3d, 0xd2, 0x08, 0x95, 0xbb,
  0x77, 0x4a, 0xd5, 0xbd, 0xc6, 0x01, 0x22, 0x3e, 0x56, 0xff, 0xff, 0xff,
  0x04, 0x00, 0x00, 0x00, 0x10, 0x00, 0x00, 0x00, 0x40, 0xf3, 0xae, 0xbd,
  0xa5, 0x99, 0x42, 0xbe, 0xd9, 0xfe, 0x15, 0xbc, 0xcf, 0x17, 0xb7, 0xbd,
  0x72, 0xff, 0xff, 0xff, 0x04, 0x00, 0x00, 0x00, 0x80, 0x00, 0x00, 0x00,
  0xa8, 0x23, 0x9e, 0xbc, 0x46, 0x85, 0x65, 0xbc, 0x64, 0x67, 0x1e, 0x3e,
  0x62, 0xd2, 0x43, 0xbe, 0x1f, 0xf2, 0xad, 0x3d, 0xd9, 0xe2, 0xc2, 0xbc,
  0x99, 0x6b, 0x1c, 0xbd, 0xcd, 0x02, 0xe0, 0x3d, 0x9a, 0x29, 0xe3, 0x3b,
  0x0e, 0xdc, 0xb6, 0xbb, 0xa8, 0x04, 0x09, 0xbe, 0xe0, 0x9e, 0xc9, 0x3d,
  0x3d, 0xe9, 0xc6, 0xbd, 0x1c, 0xd3, 0x92, 0x3d, 0x2e, 0x16, 0xb1, 0x3d,
  0xc8, 0x1c, 0x9d, 0xbd, 0xef, 0xb1, 0xe1, 0x3d, 0x03, 0x41, 0xc4, 0xbd,
  0x69, 0x01, 0x9d, 0xbd, 0x77, 0xa5, 0x06, 0x3e, 0xc6, 0x1e, 0xd9, 0x3d,
  0x00, 0x00, 0x00, 0x00, 0x66, 0x9c, 0xd8, 0x3d, 0xd2, 0xf2, 0x8b, 0xbe,
  0xe8, 0xd9, 0x07, 0x3e, 0xad, 0x31, 0x03, 0xbd, 0x00, 0x00, 0x00, 0x00,
  0x61, 0xef, 0x13, 0x3e, 0xb6, 0x93, 0xdb, 0xbd, 0x56, 0x95, 0xeb, 0x3d,
  0x84, 0xe3, 0x36, 0xbe, 0x04, 0x66, 0x86, 0x3d, 0x00, 0x00, 0x06, 0x00,
  0x08, 0x00, 0x04, 0x00, 0x06, 0x00, 0x00, 0x00, 0x04, 0x00, 0x00, 0x00,
  0x40, 0x00, 0x00, 0x00, 0x0e, 0x4b, 0xf9, 0x3d, 0xef, 0xb8, 0x9b, 0x3d,
  0x76, 0x00, 0xd7, 0x3d, 0xa6, 0xda, 0x0e, 0x3e, 0x66, 0xe3, 0x07, 0x3e,
  0x00, 0x00, 0x00, 0x00, 0x00, 0x00, 0x00, 0x00, 0x00, 0x00, 0x00, 0x00,
  0x1f, 0x6a, 0xea, 0x3d, 0x1a, 0x61, 0xb9, 0x3d, 0x00, 0x00, 0x00, 0x00,
  0xc0, 0xf4, 0x8b, 0x3d, 0x93, 0x29, 0x1c, 0x3e, 0xf0, 0xa8, 0x14, 0xbe,
  0x00, 0x00, 0x00, 0x00, 0x2e, 0x9e, 0xab, 0x3d, 0xa0, 0xf4, 0xff, 0xff,
  0xa4, 0xf4, 0xff, 0xff, 0x0f, 0x00, 0x00, 0x00, 0x4d, 0x4c, 0x49, 0x52,
  0x20, 0x43, 0x6f, 0x6e, 0x76, 0x65, 0x72, 0x74, 0x65, 0x64, 0x2e, 0x00,
  0x01, 0x00, 0x00, 0x00, 0x14, 0x00, 0x00, 0x00, 0x00, 0x00, 0x0e, 0x00,
  0x18, 0x00, 0x14, 0x00, 0x10, 0x00, 0x0c, 0x00, 0x08, 0x00, 0x04, 0x00,
  0x0e, 0x00, 0x00, 0x00, 0x14, 0x00, 0x00, 0x00, 0x1c, 0x00, 0x00, 0x00,
  0xb0, 0x01, 0x00, 0x00, 0xb4, 0x01, 0x00, 0x00, 0xb8, 0x01, 0x00, 0x00,
  0x04, 0x00, 0x00, 0x00, 0x6d, 0x61, 0x69, 0x6e, 0x00, 0x00, 0x00, 0x00,
  0x07, 0x00, 0x00, 0x00, 0x58, 0x01, 0x00, 0x00, 0x10, 0x01, 0x00, 0x00,
  0xd8, 0x00, 0x00, 0x00, 0xa0, 0x00, 0x00, 0x00, 0x68, 0x00, 0x00, 0x00,
  0x34, 0x00, 0x00, 0x00, 0x10, 0x00, 0x00, 0x00, 0x00, 0x00, 0x0a, 0x00,
  0x10, 0x00, 0x0c, 0x00, 0x08, 0x00, 0x04, 0x00, 0x0a, 0x00, 0x00, 0x00,
  0x0c, 0x00, 0x00, 0x00, 0x10, 0x00, 0x00, 0x00, 0x01, 0x00, 0x00, 0x00,
  0x01, 0x00, 0x00, 0x00, 0x13, 0x00, 0x00, 0x00, 0x01, 0x00, 0x00, 0x00,
  0x12, 0x00, 0x00, 0x00, 0xfe, 0xfe, 0xff, 0xff, 0x10, 0x00, 0x00, 0x00,
  0x00, 0x00, 0x00, 0x08, 0x0c, 0x00, 0x00, 0x00, 0x10, 0x00, 0x00, 0x00,
  0x58, 0xf5, 0xff, 0xff, 0x01, 0x00, 0x00, 0x00, 0x12, 0x00, 0x00, 0x00,
  0x03, 0x00, 0x00, 0x00, 0x11, 0x00, 0x00, 0x00, 0x0c, 0x00, 0x00, 0x00,
  0x03, 0x00, 0x00, 0x00, 0x2e, 0xff, 0xff, 0xff, 0x10, 0x00, 0x00, 0x00,
  0x00, 0x00, 0x00, 0x08, 0x10, 0x00, 0x00, 0x00, 0x14, 0x00, 0x00, 0x00,
  0x1e, 0xff, 0xff, 0xff, 0x00, 0x00, 0x00, 0x01, 0x01, 0x00, 0x00, 0x00,
  0x11, 0x00, 0x00, 0x00, 0x03, 0x00, 0x00, 0x00, 0x10, 0x00, 0x00, 0x00,
  0x0b, 0x00, 0x00, 0x00, 0x02, 0x00, 0x00, 0x00, 0x62, 0xff, 0xff, 0xff,
  0x10, 0x00, 0x00, 0x00, 0x00, 0x00, 0x00, 0x08, 0x10, 0x00, 0x00, 0x00,
  0x14, 0x00, 0x00, 0x00, 0x52, 0xff, 0xff, 0xff, 0x00, 0x00, 0x00, 0x01,
  0x01, 0x00, 0x00, 0x00, 0x10, 0x00, 0x00, 0x00, 0x03, 0x00, 0x00, 0x00,
  0x0f, 0x00, 0x00, 0x00, 0x0a, 0x00, 0x00, 0x00, 0x01, 0x00, 0x00, 0x00,
  0x96, 0xff, 0xff, 0xff, 0x10, 0x00, 0x00, 0x00, 0x00, 0x00, 0x00, 0x08,
  0x10, 0x00, 0x00, 0x00, 0x14, 0x00, 0x00, 0x00, 0x86, 0xff, 0xff, 0xff,
  0x00, 0x00, 0x00, 0x01, 0x01, 0x00, 0x00, 0x00, 0x0f, 0x00, 0x00, 0x00,
  0x03, 0x00, 0x00, 0x00, 0x0e, 0x00, 0x00, 0x00, 0x09, 0x00, 0x00, 0x00,
  0x05, 0x00, 0x00, 0x00, 0xca, 0xff, 0xff, 0xff, 0x10, 0x00, 0x00, 0x00,
  0x00, 0x00, 0x00, 0x08, 0x10, 0x00, 0x00, 0x00, 0x14, 0x00, 0x00, 0x00,
  0xba, 0xff, 0xff, 0xff, 0x00, 0x00, 0x00, 0x01, 0x01, 0x00, 0x00, 0x00,
  0x0e, 0x00, 0x00, 0x00, 0x03, 0x00, 0x00, 0x00, 0x0d, 0x00, 0x00, 0x00,
  0x08, 0x00, 0x00, 0x00, 0x04, 0x00, 0x00, 0x00, 0x00, 0x00, 0x0e, 0x00,
  0x16, 0x00, 0x00, 0x00, 0x10, 0x00, 0x0c, 0x00, 0x0b, 0x00, 0x04, 0x00,
  0x0e, 0x00, 0x00, 0x00, 0x18, 0x00, 0x00, 0x00, 0x00, 0x00, 0x00, 0x08,
  0x18, 0x00, 0x00, 0x00, 0x1c, 0x00, 0x00, 0x00, 0x00, 0x00, 0x06, 0x00,
  0x08, 0x00, 0x07, 0x00, 0x06, 0x00, 0x00, 0x00, 0x00, 0x00, 0x00, 0x01,
  0x01, 0x00, 0x00, 0x00, 0x0d, 0x00, 0x00, 0x00, 0x03, 0x00, 0x00, 0x00,
  0x00, 0x00, 0x00, 0x00, 0x07, 0x00, 0x00, 0x00, 0x06, 0x00, 0x00, 0x00,
  0x01, 0x00, 0x00, 0x00, 0x13, 0x00, 0x00, 0x00, 0x01, 0x00, 0x00, 0x00,
  0x00, 0x00, 0x00, 0x00, 0x14, 0x00, 0x00, 0x00, 0x34, 0x09, 0x00, 0x00,
  0xb4, 0x08, 0x00, 0x00, 0x34, 0x08, 0x00, 0x00, 0xcc, 0x07, 0x00, 0x00,
  0x68, 0x07, 0x00, 0x00, 0x04, 0x07, 0x00, 0x00, 0xa0, 0x06, 0x00, 0x00,
  0x48, 0x06, 0x00, 0x00, 0xf0, 0x05, 0x00, 0x00, 0x98, 0x05, 0x00, 0x00,
  0x3c, 0x05, 0x00, 0x00, 0xe0, 0x04, 0x00, 0x00, 0x84, 0x04, 0x00, 0x00,
  0xd4, 0x03, 0x00, 0x00, 0x20, 0x03, 0x00, 0x00, 0x6c, 0x02, 0x00, 0x00,
  0xb0, 0x01, 0x00, 0x00, 0xf4, 0x00, 0x00, 0x00, 0x60, 0x00, 0x00, 0x00,
  0x04, 0x00, 0x00, 0x00, 0x32, 0xf7, 0xff, 0xff, 0x00, 0x00, 0x00, 0x01,
  0x14, 0x00, 0x00, 0x00, 0x1c, 0x00, 0x00, 0x00, 0x1c, 0x00, 0x00, 0x00,
  0x14, 0x00, 0x00, 0x00, 0x34, 0x00, 0x00, 0x00, 0x02, 0x00, 0x00, 0x00,
  0xff, 0xff, 0xff, 0xff, 0x04, 0x00, 0x00, 0x00, 0x1c, 0xf7, 0xff, 0xff,
  0x19, 0x00, 0x00, 0x00, 0x53, 0x74, 0x61, 0x74, 0x65, 0x66, 0x75, 0x6c,
  0x50, 0x61, 0x72, 0x74, 0x69, 0x74, 0x69, 0x6f, 0x6e, 0x65, 0x64, 0x43,
  0x61, 0x6c, 0x6c, 0x3a, 0x30, 0x00, 0x00, 0x00, 0x02, 0x00, 0x00, 0x00,
  0x01, 0x00, 0x00, 0x00, 0x04, 0x00, 0x00, 0x00, 0x8a, 0xf7, 0xff, 0xff,
  0x00, 0x00, 0x00, 0x01, 0x14, 0x00, 0x00, 0x00, 0x1c, 0x00, 0x00, 0x00,
  0x1c, 0x00, 0x00, 0x00, 0x13, 0x00, 0x00, 0x00, 0x6c, 0x00, 0x00, 0x00,
  0x02, 0x00, 0x00, 0x00, 0xff, 0xff, 0xff, 0xff, 0x04, 0x00, 0x00, 0x00,
  0x74, 0xf7, 0xff, 0xff, 0x52, 0x00, 0x00, 0x00, 0x73, 0x65, 0x71, 0x75,
  0x65, 0x6e, 0x74, 0x69, 0x61, 0x6c, 0x5f, 0x32, 0x2f, 0x73, 0x65, 0x71,
  0x75, 0x65, 0x6e, 0x74, 0x69, 0x61, 0x6c, 0x5f, 0x31, 0x2f, 0x64, 0x65,
  0x6e, 0x73, 0x65, 0x5f, 0x35, 0x2f, 0x4d, 0x61, 0x74, 0x4d, 0x75, 0x6c,
  0x3b, 0x73, 0x65, 0x71, 0x75, 0x65, 0x6e, 0x74, 0x69, 0x61, 0x6c, 0x5f,
  0x32, 0x2f, 0x73, 0x65, 0x71, 0x75, 0x65, 0x6e, 0x74, 0x69, 0x61, 0x6c,
  0x5f, 0x31, 0x2f, 0x64, 0x65, 0x6e, 0x73, 0x65, 0x5f, 0x35, 0x2f, 0x42,
  0x69, 0x61, 0x73, 0x41, 0x64, 0x64, 0x00, 0x00, 0x02, 0x00, 0x00, 0x00,
  0x01, 0x00, 0x00, 0x00, 0x04, 0x00, 0x00, 0x00, 0x1a, 0xf8, 0xff, 0xff,
  0x00, 0x00, 0x00, 0x01, 0x14, 0x00, 0x00, 0x00, 0x1c, 0x00, 0x00, 0x00,
  0x1c, 0x00, 0x00, 0x00, 0x12, 0x00, 0x00, 0x00, 0x94, 0x00, 0x00, 0x00,
  0x02, 0x00, 0x00, 0x00, 0xff, 0xff, 0xff, 0xff, 0x20, 0x00, 0x00, 0x00,
  0x04, 0xf8, 0xff, 0xff, 0x79, 0x00, 0x00, 0x00, 0x73, 0x65, 0x71, 0x75,
  0x65, 0x6e, 0x74, 0x69, 0x61, 0x6c, 0x5f, 0x32, 0x2f, 0x73, 0x65, 0x71,
  0x75, 0x65, 0x6e, 0x74, 0x69, 0x61, 0x6c, 0x5f, 0x31, 0x2f, 0x64, 0x65,
  0x6e, 0x73, 0x65, 0x5f, 0x34, 0x2f, 0x4d, 0x61, 0x74, 0x4d, 0x75, 0x6c,
  0x3b, 0x73, 0x65, 0x71, 0x75, 0x65, 0x6e, 0x74, 0x69, 0x61, 0x6c, 0x5f,
  0x32, 0x2f, 0x73, 0x65, 0x71, 0x75, 0x65, 0x6e, 0x74, 0x69, 0x61, 0x6c,
  0x5f, 0x31, 0x2f, 0x64, 0x65, 0x6e, 0x73, 0x65, 0x5f, 0x34, 0x2f, 0x52,
  0x65, 0x6c, 0x75, 0x3b, 0x73, 0x65, 0x71, 0x75, 0x65, 0x6e, 0x74, 0x69,
  0x61, 0x6c, 0x5f, 0x32, 0x2f, 0x73, 0x65, 0x71, 0x75, 0x65, 0x6e, 0x74,
  0x69, 0x61, 0x6c, 0x5f, 0x31, 0x2f, 0x64, 0x65, 0x6e, 0x73, 0x65, 0x5f,
  0x34, 0x2f, 0x42, 0x69, 0x61, 0x73, 0x41, 0x64, 0x64, 0x00, 0x00, 0x00,
  0x02, 0x00, 0x00, 0x00, 0x01, 0x00, 0x00, 0x00, 0x20, 0x00, 0x00, 0x00,
  0xd2, 0xf8, 0xff, 0xff, 0x00, 0x00, 0x00, 0x01, 0x14, 0x00, 0x00, 0x00,
  0x1c, 0x00, 0x00, 0x00, 0x1c, 0x00, 0x00, 0x00, 0x11, 0x00, 0x00, 0x00,
  0x94, 0x00, 0x00, 0x00, 0x02, 0x00, 0x00, 0x00, 0xff, 0xff, 0xff, 0xff,
  0x10, 0x00, 0x00, 0x00, 0xbc, 0xf8, 0xff, 0xff, 0x79, 0x00, 0x00, 0x00,
  0x73, 0x65, 0x71, 0x75, 0x65, 0x6e, 0x74, 0x69, 0x61, 0x6c, 0x5f, 0x32,
  0x2f, 0x73, 0x65, 0x71, 0x75, 0x65, 0x6e, 0x74, 0x69, 0x61, 0x6c, 0x5f,
  0x31, 0x2f, 0x64, 0x65, 0x6e, 0x73, 0x65, 0x5f, 0x33, 0x2f, 0x4d, 0x61,
  0x74, 0x4d, 0x75, 0x6c, 0x3b, 0x73, 0x65, 0x71, 0x75, 0x65, 0x6e, 0x74,
  0x69, 0x61, 0x6c, 0x5f, 0x32, 0x2f, 0x73, 0x65, 0x71, 0x75, 0x65, 0x6e,
  0x74, 0x69, 0x61, 0x6c, 0x5f, 0x31, 0x2f, 0x64, 0x65, 0x6e, 0x73, 0x65,
  0x5f, 0x33, 0x2f, 0x52, 0x65, 0x6c, 0x75, 0x3b, 0x73, 0x65, 0x71, 0x75,
  0x65, 0x6e, 0x74, 0x69, 0x61, 0x6c, 0x5f, 0x32, 0x2f, 0x73, 0x65, 0x71,
  0x75, 0x65, 0x6e, 0x74, 0x69, 0x61, 0x6c, 0x5f, 0x31, 0x2f, 0x64, 0x65,
  0x6e, 0x73, 0x65, 0x5f, 0x33, 0x2f, 0x42, 0x69, 0x61, 0x73, 0x41, 0x64,
  0x64, 0x00, 0x00, 0x00, 0x02, 0x00, 0x00, 0x00, 0x01, 0x00, 0x00, 0x00,
  0x10, 0x00, 0x00, 0x00, 0x8a, 0xf9, 0xff, 0xff, 0x00, 0x00, 0x00, 0x01,
  0x14, 0x00, 0x00, 0x00, 0x1c, 0x00, 0x00, 0x00, 0x1c, 0x00, 0x00, 0x00,
  0x10, 0x00, 0x00, 0x00, 0x8c, 0x00, 0x00, 0x00, 0x02, 0x00, 0x00, 0x00,
  0xff, 0xff, 0xff, 0xff, 0x04, 0x00, 0x00, 0x00, 0x74, 0xf9, 0xff, 0xff,
  0x73, 0x00, 0x00, 0x00, 0x73, 0x65, 0x71, 0x75, 0x65, 0x6e, 0x74, 0x69,
  0x61, 0x6c, 0x5f, 0x32, 0x2f, 0x73, 0x65, 0x71, 0x75, 0x65, 0x6e, 0x74,
  0x69, 0x61, 0x6c, 0x2f, 0x64, 0x65, 0x6e, 0x73, 0x65, 0x5f, 0x32, 0x2f,
  0x4d, 0x61, 0x74, 0x4d, 0x75, 0x6c, 0x3b, 0x73, 0x65, 0x71, 0x75, 0x65,
  0x6e, 0x74, 0x69, 0x61, 0x6c, 0x5f, 0x32, 0x2f, 0x73, 0x65, 0x71, 0x75,
  0x65, 0x6e, 0x74, 0x69, 0x61, 0x6c, 0x2f, 0x64, 0x65, 0x6e, 0x73, 0x65,
  0x5f, 0x32, 0x2f, 0x52, 0x65, 0x6c, 0x75, 0x3b, 0x73, 0x65, 0x71, 0x75,
  0x65, 0x6e, 0x74, 0x69, 0x61, 0x6c, 0x5f, 0x32, 0x2f, 0x73, 0x65, 0x71,
  0x75, 0x65, 0x6e, 0x74, 0x69, 0x61, 0x6c, 0x2f, 0x64, 0x65, 0x6e, 0x73,
  0x65, 0x5f, 0x32, 0x2f, 0x42, 0x69, 0x61, 0x73, 0x41, 0x64, 0x64, 0x00,
  0x02, 0x00, 0x00, 0x00, 0x01, 0x00, 0x00, 0x00, 0x04, 0x00, 0x00, 0x00,
  0x3a, 0xfa, 0xff, 0xff, 0x00, 0x00, 0x00, 0x01, 0x14, 0x00, 0x00, 0x00,
  0x1c, 0x00, 0x00, 0x00, 0x1c, 0x00, 0x00, 0x00, 0x0f, 0x00, 0x00, 0x00,
  0x8c, 0x00, 0x00, 0x00, 0x02, 0x00, 0x00, 0x00, 0xff, 0xff, 0xff, 0xff,
  0x10, 0x00, 0x00, 0x00, 0x24, 0xfa, 0xff, 0xff, 0x73, 0x00, 0x00, 0x00,
  0x73, 0x65, 0x71, 0x75, 0x65, 0x6e, 0x74, 0x69, 0x61, 0x6c, 0x5f, 0x32,
  0x2f, 0x73, 0x65, 0x71, 0x75, 0x65, 0x6e, 0x74, 0x69, 0x61, 0x6c, 0x2f,
  0x64, 0x65, 0x6e, 0x73, 0x65, 0x5f, 0x31, 0x2f, 0x4d, 0x61, 0x74, 0x4d,
  0x75, 0x6c, 0x3b, 0x73, 0x65, 0x71, 0x75, 0x65, 0x6e, 0x74, 0x69, 0x61,
  0x6c, 0x5f, 0x32, 0x2f, 0x73, 0x65, 0x71, 0x75, 0x65, 0x6e, 0x74, 0x69,
  0x61, 0x6c, 0x2f, 0x64, 0x65, 0x6e, 0x73, 0x65, 0x5f, 0x31, 0x2f, 0x52,
  0x65, 0x6c, 0x75, 0x3b, 0x73, 0x65, 0x71, 0x75, 0x65, 0x6e, 0x74, 0x69,
  0x61, 0x6c, 0x5f, 0x32, 0x2f, 0x73, 0x65, 0x71, 0x75, 0x65, 0x6e, 0x74,
  0x69, 0x61, 0x6c, 0x2f, 0x64, 0x65, 0x6e, 0x73, 0x65, 0x5f, 0x31, 0x2f,
  0x42, 0x69, 0x61, 0x73, 0x41, 0x64, 0x64, 0x00, 0x02, 0x00, 0x00, 0x00,
  0x01, 0x00, 0x00, 0x00, 0x10, 0x00, 0x00, 0x00, 0xea, 0xfa, 0xff, 0xff,
  0x00, 0x00, 0x00, 0x01, 0x14, 0x00, 0x00, 0x00, 0x1c, 0x00, 0x00, 0x00,
  0x1c, 0x00, 0x00, 0x00, 0x0e, 0x00, 0x00, 0x00, 0x88, 0x00, 0x00, 0x00,
  0x02, 0x00, 0x00, 0x00, 0xff, 0xff, 0xff, 0xff, 0x20, 0x00, 0x00, 0x00,
  0xd4, 0xfa, 0xff, 0xff, 0x6d, 0x00, 0x00, 0x00, 0x73, 0x65, 0x71, 0x75,
  0x65, 0x6e, 0x74, 0x69, 0x61, 0x6c, 0x5f, 0x32, 0x2f, 0x73, 0x65, 0x71,
  0x75, 0x65, 0x6e, 0x74, 0x69, 0x61, 0x6c, 0x2f, 0x64, 0x65, 0x6e, 0x73,
  0x65, 0x2f, 0x4d, 0x61, 0x74, 0x4d, 0x75, 0x6c, 0x3b, 0x73, 0x65, 0x71,
  0x75, 0x65, 0x6e, 0x74, 0x69, 0x61, 0x6c, 0x5f, 0x32, 0x2f, 0x73, 0x65,
  0x71, 0x75, 0x65, 0x6e, 0x74, 0x69, 0x61, 0x6c, 0x2f, 0x64, 0x65, 0x6e,
  0x73, 0x65, 0x2f, 0x52, 0x65, 0x6c, 0x75, 0x3b, 0x73, 0x65, 0x71, 0x75,
  0x65, 0x6e, 0x74, 0x69, 0x61, 0x6c, 0x5f, 0x32, 0x2f, 0x73, 0x65, 0x71,
  0x75, 0x65, 0x6e, 0x74, 0x69, 0x61, 0x6c, 0x2f, 0x64, 0x65, 0x6e, 0x73,
  0x65, 0x2f, 0x42, 0x69, 0x61, 0x73, 0x41, 0x64, 0x64, 0x00, 0x00, 0x00,
  0x02, 0x00, 0x00, 0x00, 0x01, 0x00, 0x00, 0x00, 0x20, 0x00, 0x00, 0x00,
  0x12, 0xfc, 0xff, 0xff, 0x00, 0x00, 0x00, 0x01, 0x10, 0x00, 0x00, 0x00,
  0x10, 0x00, 0x00, 0x00, 0x0d, 0x00, 0x00, 0x00, 0x38, 0x00, 0x00, 0x00,
  0x70, 0xfb, 0xff, 0xff, 0x28, 0x00, 0x00, 0x00, 0x73, 0x65, 0x71, 0x75,
  0x65, 0x6e, 0x74, 0x69, 0x61, 0x6c, 0x5f, 0x32, 0x2f, 0x73, 0x65, 0x71,
  0x75, 0x65, 0x6e, 0x74, 0x69, 0x61, 0x6c, 0x5f, 0x31, 0x2f, 0x64, 0x65,
  0x6e, 0x73, 0x65, 0x5f, 0x35, 0x2f, 0x4d, 0x61, 0x74, 0x4d, 0x75, 0x6c,
  0x00, 0x00, 0x00, 0x00, 0x02, 0x00, 0x00, 0x00, 0x04, 0x00, 0x00, 0x00,
  0x20, 0x00, 0x00, 0x00, 0x6a, 0xfc, 0xff, 0xff, 0x00, 0x00, 0x00, 0x01,
  0x10, 0x00, 0x00, 0x00, 0x10, 0x00, 0x00, 0x00, 0x0c, 0x00, 0x00, 0x00,
  0x38, 0x00, 0x00, 0x00, 0xc8, 0xfb, 0xff, 0xff, 0x28, 0x00, 0x00, 0x00,
  0x73, 0x65, 0x71, 0x75, 0x65, 0x6e, 0x74, 0x69, 0x61, 0x6c, 0x5f, 0x32,
  0x2f, 0x73, 0x65, 0x71, 0x75, 0x65, 0x6e, 0x74, 0x69, 0x61, 0x6c, 0x5f,
  0x31, 0x2f, 0x64, 0x65, 0x6e, 0x73, 0x65, 0x5f, 0x34, 0x2f, 0x4d, 0x61,
  0x74, 0x4d, 0x75, 0x6c, 0x00, 0x00, 0x00, 0x00, 0x02, 0x00, 0x00, 0x00,
  0x20, 0x00, 0x00, 0x00, 0x10, 0x00, 0x00, 0x00, 0xc2, 0xfc, 0xff, 0xff,
  0x00, 0x00, 0x00, 0x01, 0x10, 0x00, 0x00, 0x00, 0x10, 0x00, 0x00, 0x00,
  0x0b, 0x00, 0x00, 0x00, 0x38, 0x00, 0x00, 0x00, 0x20, 0xfc, 0xff, 0xff,
  0x28, 0x00, 0x00, 0x00, 0x73, 0x65, 0x71, 0x75, 0x65, 0x6e, 0x74, 0x69,
  0x61, 0x6c, 0x5f, 0x32, 0x2f, 0x73, 0x65, 0x71, 0x75, 0x65, 0x6e, 0x74,
  0x69, 0x61, 0x6c, 0x5f, 0x31, 0x2f, 0x64, 0x65, 0x6e, 0x73, 0x65, 0x5f,
  0x33, 0x2f, 0x4d, 0x61, 0x74, 0x4d, 0x75, 0x6c, 0x00, 0x00, 0x00, 0x00,
  0x02, 0x00, 0x00, 0x00, 0x10, 0x00, 0x00, 0x00, 0x04, 0x00, 0x00, 0x00,
  0x1a, 0xfd, 0xff, 0xff, 0x00, 0x00, 0x00, 0x01, 0x10, 0x00, 0x00, 0x00,
  0x10, 0x00, 0x00, 0x00, 0x0a, 0x00, 0x00, 0x00, 0x34, 0x00, 0x00, 0x00,
  0x78, 0xfc, 0xff, 0xff, 0x26, 0x00, 0x00, 0x00, 0x73, 0x65, 0x71, 0x75,
  0x65, 0x6e, 0x74, 0x69, 0x61, 0x6c, 0x5f, 0x32, 0x2f, 0x73, 0x65, 0x71,
  0x75, 0x65, 0x6e, 0x74, 0x69, 0x61, 0x6c, 0x2f, 0x64, 0x65, 0x6e, 0x73,
  0x65, 0x5f, 0x32, 0x2f, 0x4d, 0x61, 0x74, 0x4d, 0x75, 0x6c, 0x00, 0x00,
  0x02, 0x00, 0x00, 0x00, 0x04, 0x00, 0x00, 0x00, 0x10, 0x00, 0x00, 0x00,
  0x6e, 0xfd, 0xff, 0xff, 0x00, 0x00, 0x00, 0x01, 0x10, 0x00, 0x00, 0x00,
  0x10, 0x00, 0x00, 0x00, 0x09, 0x00, 0x00, 0x00, 0x34, 0x00, 0x00, 0x00,
  0xcc, 0xfc, 0xff, 0xff, 0x26, 0x00, 0x00, 0x00, 0x73, 0x65, 0x71, 0x75,
  0x65, 0x6e, 0x74, 0x69, 0x61, 0x6c, 0x5f, 0x32, 0x2f, 0x73, 0x65, 0x71,
  0x75, 0x65, 0x6e, 0x74, 0x69, 0x61, 0x6c, 0x2f, 0x64, 0x65, 0x6e, 0x73,
  0x65, 0x5f, 0x31, 0x2f, 0x4d, 0x61, 0x74, 0x4d, 0x75, 0x6c, 0x00, 0x00,
  0x02, 0x00, 0x00, 0x00, 0x10, 0x00, 0x00, 0x00, 0x20, 0x00, 0x00, 0x00,
  0xc2, 0xfd, 0xff, 0xff, 0x00, 0x00, 0x00, 0x01, 0x10, 0x00, 0x00, 0x00,
  0x10, 0x00, 0x00, 0x00, 0x08, 0x00, 0x00, 0x00, 0x34, 0x00, 0x00, 0x00,
  0x20, 0xfd, 0xff, 0xff, 0x24, 0x00, 0x00, 0x00, 0x73, 0x65, 0x71, 0x75,
  0x65, 0x6e, 0x74, 0x69, 0x61, 0x6c, 0x5f, 0x32, 0x2f, 0x73, 0x65, 0x71,
  0x75, 0x65, 0x6e, 0x74, 0x69, 0x61, 0x6c, 0x2f, 0x64, 0x65, 0x6e, 0x73,
  0x65, 0x2f, 0x4d, 0x61, 0x74, 0x4d, 0x75, 0x6c, 0x00, 0x00, 0x00, 0x00,
  0x02, 0x00, 0x00, 0x00, 0x20, 0x00, 0x00, 0x00, 0x04, 0x00, 0x00, 0x00,
  0x16, 0xfe, 0xff, 0xff, 0x00, 0x00, 0x00, 0x01, 0x10, 0x00, 0x00, 0x00,
  0x10, 0x00, 0x00, 0x00, 0x07, 0x00, 0x00, 0x00, 0x44, 0x00, 0x00, 0x00,
  0x74, 0xfd, 0xff, 0xff, 0x34, 0x00, 0x00, 0x00, 0x73, 0x65, 0x71, 0x75,
  0x65, 0x6e, 0x74, 0x69, 0x61, 0x6c, 0x5f, 0x32, 0x2f, 0x73, 0x65, 0x71,
  0x75, 0x65, 0x6e, 0x74, 0x69, 0x61, 0x6c, 0x2f, 0x64, 0x65, 0x6e, 0x73,
  0x65, 0x2f, 0x42, 0x69, 0x61, 0x73, 0x41, 0x64, 0x64, 0x2f, 0x52, 0x65,
  0x61, 0x64, 0x56, 0x61, 0x72, 0x69, 0x61, 0x62, 0x6c, 0x65, 0x4f, 0x70,
  0x00, 0x00, 0x00, 0x00, 0x01, 0x00, 0x00, 0x00, 0x20, 0x00, 0x00, 0x00,
  0x76, 0xfe, 0xff, 0xff, 0x00, 0x00, 0x00, 0x01, 0x10, 0x00, 0x00, 0x00,
  0x10, 0x00, 0x00, 0x00, 0x06, 0x00, 0x00, 0x00, 0x44, 0x00, 0x00, 0x00,
  0xd4, 0xfd, 0xff, 0xff, 0x36, 0x00, 0x00, 0x00, 0x73, 0x65, 0x71, 0x75,
  0x65, 0x6e, 0x74, 0x69, 0x61, 0x6c, 0x5f, 0x32, 0x2f, 0x73, 0x65, 0x71,
  0x75, 0x65, 0x6e, 0x74, 0x69, 0x61, 0x6c, 0x2f, 0x64, 0x65, 0x6e, 0x73,
  0x65, 0x5f, 0x32, 0x2f, 0x42, 0x69, 0x61, 0x73, 0x41, 0x64, 0x64, 0x2f,
  0x52, 0x65, 0x61, 0x64, 0x56, 0x61, 0x72, 0x69, 0x61, 0x62, 0x6c, 0x65,
  0x4f, 0x70, 0x00, 0x00, 0x01, 0x00, 0x00, 0x00, 0x04, 0x00, 0x00, 0x00,
  0xd6, 0xfe, 0xff, 0xff, 0x00, 0x00, 0x00, 0x01, 0x10, 0x00, 0x00, 0x00,
  0x10, 0x00, 0x00, 0x00, 0x05, 0x00, 0x00, 0x00, 0x44, 0x00, 0x00, 0x00,
  0x34, 0xfe, 0xff, 0xff, 0x36, 0x00, 0x00, 0x00, 0x73, 0x65, 0x71, 0x75,
  0x65, 0x6e, 0x74, 0x69, 0x61, 0x6c, 0x5f, 0x32, 0x2f, 0x73, 0x65, 0x71,
  0x75, 0x65, 0x6e, 0x74, 0x69, 0x61, 0x6c, 0x2f, 0x64, 0x65, 0x6e, 0x73,
  0x65, 0x5f, 0x31, 0x2f, 0x42, 0x69, 0x61, 0x73, 0x41, 0x64, 0x64, 0x2f,
  0x52, 0x65, 0x61, 0x64, 0x56, 0x61, 0x72, 0x69, 0x61, 0x62, 0x6c, 0x65,
  0x4f, 0x70, 0x00, 0x00, 0x01, 0x00, 0x00, 0x00, 0x10, 0x00, 0x00, 0x00,
  0x36, 0xff, 0xff, 0xff, 0x00, 0x00, 0x00, 0x01, 0x10, 0x00, 0x00, 0x00,
  0x10, 0x00, 0x00, 0x00, 0x04, 0x00, 0x00, 0x00, 0x48, 0x00, 0x00, 0x00,
  0x94, 0xfe, 0xff, 0xff, 0x38, 0x00, 0x00, 0x00, 0x73, 0x65, 0x71, 0x75,
  0x65, 0x6e, 0x74, 0x69, 0x61, 0x6c, 0x5f, 0x32, 0x2f, 0x73, 0x65, 0x71,
  0x75, 0x65, 0x6e, 0x74, 0x69, 0x61, 0x6c, 0x5f, 0x31, 0x2f, 0x64, 0x65,
  0x6e, 0x73, 0x65, 0x5f, 0x35, 0x2f, 0x42, 0x69, 0x61, 0x73, 0x41, 0x64,
  0x64, 0x2f, 0x52, 0x65, 0x61, 0x64, 0x56, 0x61, 0x72, 0x69, 0x61, 0x62,
  0x6c, 0x65, 0x4f, 0x70, 0x00, 0x00, 0x00, 0x00, 0x01, 0x00, 0x00, 0x00,
  0x04, 0x00, 0x00, 0x00, 0x9a, 0xff, 0xff, 0xff, 0x00, 0x00, 0x00, 0x01,
  0x10, 0x00, 0x00, 0x00, 0x10, 0x00, 0x00, 0x00, 0x03, 0x00, 0x00, 0x00,
  0x48, 0x00, 0x00, 0x00, 0xf8, 0xfe, 0xff, 0xff, 0x38, 0x00, 0x00, 0x00,
  0x73, 0x65, 0x71, 0x75, 0x65, 0x6e, 0x74, 0x69, 0x61, 0x6c, 0x5f, 0x32,
  0x2f, 0x73, 0x65, 0x71, 0x75, 0x65, 0x6e, 0x74, 0x69, 0x61, 0x6c, 0x5f,
  0x31, 0x2f, 0x64, 0x65, 0x6e, 0x73, 0x65, 0x5f, 0x34, 0x2f, 0x42, 0x69,
  0x61, 0x73, 0x41, 0x64, 0x64, 0x2f, 0x52, 0x65, 0x61, 0x64, 0x56, 0x61,
  0x72, 0x69, 0x61, 0x62, 0x6c, 0x65, 0x4f, 0x70, 0x00, 0x00, 0x00, 0x00,
  0x01, 0x00, 0x00, 0x00, 0x20, 0x00, 0x00, 0x00, 0x00, 0x00, 0x16, 0x00,
  0x18, 0x00, 0x14, 0x00, 0x00, 0x00, 0x10, 0x00, 0x0c, 0x00, 0x08, 0x00,
  0x00, 0x00, 0x00, 0x00, 0x00, 0x00, 0x07, 0x00, 0x16, 0x00, 0x00, 0x00,
  0x00, 0x00, 0x00, 0x01, 0x10, 0x00, 0x00, 0x00, 0x10, 0x00, 0x00, 0x00,
  0x02, 0x00, 0x00, 0x00, 0x48, 0x00, 0x00, 0x00, 0x74, 0xff, 0xff, 0xff,
  0x38, 0x00, 0x00, 0x00, 0x73, 0x65, 0x71, 0x75, 0x65, 0x6e, 0x74, 0x69,
  0x61, 0x6c, 0x5f, 0x32, 0x2f, 0x73, 0x65, 0x71, 0x75, 0x65, 0x6e, 0x74,
  0x69, 0x61, 0x6c, 0x5f, 0x31, 0x2f, 0x64, 0x65, 0x6e, 0x73, 0x65, 0x5f,
  0x33, 0x2f, 0x42, 0x69, 0x61, 0x73, 0x41, 0x64, 0x64, 0x2f, 0x52, 0x65,
  0x61, 0x64, 0x56, 0x61, 0x72, 0x69, 0x61, 0x62, 0x6c, 0x65, 0x4f, 0x70,
  0x00, 0x00, 0x00, 0x00, 0x01, 0x00, 0x00, 0x00, 0x10, 0x00, 0x00, 0x00,
  0x00, 0x00, 0x16, 0x00, 0x1c, 0x00, 0x18, 0x00, 0x00, 0x00, 0x14, 0x00,
  0x10, 0x00, 0x0c, 0x00, 0x00, 0x00, 0x00, 0x00, 0x08, 0x00, 0x07, 0x00,
  0x16, 0x00, 0x00, 0x00, 0x00, 0x00, 0x00, 0x01, 0x14, 0x00, 0x00, 0x00,
  0x20, 0x00, 0x00, 0x00, 0x20, 0x00, 0x00, 0x00, 0x01, 0x00, 0x00, 0x00,
  0x40, 0x00, 0x00, 0x00, 0x02, 0x00, 0x00, 0x00, 0xff, 0xff, 0xff, 0xff,
  0x04, 0x00, 0x00, 0x00, 0x04, 0x00, 0x04, 0x00, 0x04, 0x00, 0x00, 0x00,
  0x22, 0x00, 0x00, 0x00, 0x73, 0x65, 0x72, 0x76, 0x69, 0x6e, 0x67, 0x5f,
  0x64, 0x65, 0x66, 0x61, 0x75, 0x6c, 0x74, 0x5f, 0x73, 0x65, 0x71, 0x75,
  0x65, 0x6e, 0x74, 0x69, 0x61, 0x6c, 0x5f, 0x69, 0x6e, 0x70, 0x75, 0x74,
  0x3a, 0x30, 0x00, 0x00, 0x02, 0x00, 0x00, 0x00, 0x01, 0x00, 0x00, 0x00,
  0x04, 0x00, 0x00, 0x00, 0x02, 0x00, 0x00, 0x00, 0x20, 0x00, 0x00, 0x00,
  0x04, 0x00, 0x00, 0x00, 0xf4, 0xff, 0xff, 0xff, 0x0e, 0x00, 0x00, 0x00,
  0x00, 0x00, 0x00, 0x0e, 0x0c, 0x00, 0x0c, 0x00, 0x0b, 0x00, 0x00, 0x00,
  0x00, 0x00, 0x04, 0x00, 0x0c, 0x00, 0x00, 0x00, 0x09, 0x00, 0x00, 0x00,
  0x00, 0x00, 0x00, 0x09
};
unsigned int tflite_learn_3_len = 9748;

#endif // _EI_CLASSIFIER_TFLITE_LEARN_3_H_

